unsigned char model_tflite[] = {
  0x1c, 0x00, 0x00, 0x00, 0x54, 0x46, 0x4c, 0x33, 0x14, 0x00, 0x20, 0x00,
  0x1c, 0x00, 0x18, 0x00, 0x14, 0x00, 0x10, 0x00, 0x0c, 0x00, 0x00, 0x00,
  0x08, 0x00, 0x04, 0x00, 0x14, 0x00, 0x00, 0x00, 0x1c, 0x00, 0x00, 0x00,
  0x88, 0x00, 0x00, 0x00, 0xe0, 0x00, 0x00, 0x00, 0x94, 0x14, 0x00, 0x00,
  0xa4, 0x14, 0x00, 0x00, 0x10, 0x1c, 0x00, 0x00, 0x03, 0x00, 0x00, 0x00,
  0x01, 0x00, 0x00, 0x00, 0x04, 0x00, 0x00, 0x00, 0xa6, 0xea, 0xff, 0xff,
  0x0c, 0x00, 0x00, 0x00, 0x1c, 0x00, 0x00, 0x00, 0x38, 0x00, 0x00, 0x00,
  0x0f, 0x00, 0x00, 0x00, 0x73, 0x65, 0x72, 0x76, 0x69, 0x6e, 0x67, 0x5f,
  0x64, 0x65, 0x66, 0x61, 0x75, 0x6c, 0x74, 0x00, 0x01, 0x00, 0x00, 0x00,
  0x04, 0x00, 0x00, 0x00, 0x94, 0xff, 0xff, 0xff, 0x0c, 0x00, 0x00, 0x00,
  0x04, 0x00, 0x00, 0x00, 0x07, 0x00, 0x00, 0x00, 0x64, 0x65, 0x6e, 0x73,
  0x65, 0x5f, 0x33, 0x00, 0x01, 0x00, 0x00, 0x00, 0x04, 0x00, 0x00, 0x00,
  0xee, 0xeb, 0xff, 0xff, 0x04, 0x00, 0x00, 0x00, 0x0e, 0x00, 0x00, 0x00,
  0x63, 0x6f, 0x6e, 0x76, 0x32, 0x64, 0x5f, 0x31, 0x5f, 0x69, 0x6e, 0x70,
  0x75, 0x74, 0x00, 0x00, 0x02, 0x00, 0x00, 0x00, 0x34, 0x00, 0x00, 0x00,
  0x04, 0x00, 0x00, 0x00, 0xdc, 0xff, 0xff, 0xff, 0x0f, 0x00, 0x00, 0x00,
  0x04, 0x00, 0x00, 0x00, 0x13, 0x00, 0x00, 0x00, 0x43, 0x4f, 0x4e, 0x56,
  0x45, 0x52, 0x53, 0x49, 0x4f, 0x4e, 0x5f, 0x4d, 0x45, 0x54, 0x41, 0x44,
  0x41, 0x54, 0x41, 0x00, 0x08, 0x00, 0x0c, 0x00, 0x08, 0x00, 0x04, 0x00,
  0x08, 0x00, 0x00, 0x00, 0x0e, 0x00, 0x00, 0x00, 0x04, 0x00, 0x00, 0x00,
  0x13, 0x00, 0x00, 0x00, 0x6d, 0x69, 0x6e, 0x5f, 0x72, 0x75, 0x6e, 0x74,
  0x69, 0x6d, 0x65, 0x5f, 0x76, 0x65, 0x72, 0x73, 0x69, 0x6f, 0x6e, 0x00,
  0x10, 0x00, 0x00, 0x00, 0xb0, 0x13, 0x00, 0x00, 0xa8, 0x13, 0x00, 0x00,
  0x94, 0x13, 0x00, 0x00, 0x58, 0x13, 0x00, 0x00, 0x40, 0x13, 0x00, 0x00,
  0x2c, 0x12, 0x00, 0x00, 0x14, 0x12, 0x00, 0x00, 0xc8, 0x02, 0x00, 0x00,
  0xb0, 0x00, 0x00, 0x00, 0xa8, 0x00, 0x00, 0x00, 0xa0, 0x00, 0x00, 0x00,
  0x98, 0x00, 0x00, 0x00, 0x90, 0x00, 0x00, 0x00, 0x88, 0x00, 0x00, 0x00,
  0x68, 0x00, 0x00, 0x00, 0x04, 0x00, 0x00, 0x00, 0xaa, 0xec, 0xff, 0xff,
  0x04, 0x00, 0x00, 0x00, 0x54, 0x00, 0x00, 0x00, 0x0c, 0x00, 0x00, 0x00,
  0x08, 0x00, 0x0e, 0x00, 0x08, 0x00, 0x04, 0x00, 0x08, 0x00, 0x00, 0x00,
  0x10, 0x00, 0x00, 0x00, 0x24, 0x00, 0x00, 0x00, 0x00, 0x00, 0x06, 0x00,
  0x08, 0x00, 0x04, 0x00, 0x06, 0x00, 0x00, 0x00, 0x04, 0x00, 0x00, 0x00,
  0x00, 0x00, 0x00, 0x00, 0x00, 0x00, 0x0a, 0x00, 0x10, 0x00, 0x0c, 0x00,
  0x08, 0x00, 0x04, 0x00, 0x0a, 0x00, 0x00, 0x00, 0x02, 0x00, 0x00, 0x00,
  0x02, 0x00, 0x00, 0x00, 0x04, 0x00, 0x00, 0x00, 0x06, 0x00, 0x00, 0x00,
  0x32, 0x2e, 0x31, 0x32, 0x2e, 0x30, 0x00, 0x00, 0x0a, 0xed, 0xff, 0xff,
  0x04, 0x00, 0x00, 0x00, 0x10, 0x00, 0x00, 0x00, 0x31, 0x2e, 0x35, 0x2e,
  0x30, 0x00, 0x00, 0x00, 0x00, 0x00, 0x00, 0x00, 0x00, 0x00, 0x00, 0x00,
  0xc8, 0xe5, 0xff, 0xff, 0xcc, 0xe5, 0xff, 0xff, 0xd0, 0xe5, 0xff, 0xff,
  0xd4, 0xe5, 0xff, 0xff, 0xd8, 0xe5, 0xff, 0xff, 0x3a, 0xed, 0xff, 0xff,
  0x04, 0x00, 0x00, 0x00, 0x08, 0x02, 0x00, 0x00, 0xdd, 0x82, 0x2a, 0xbe,
  0xf0, 0x2e, 0x53, 0x40, 0x62, 0x35, 0x2d, 0xbe, 0x99, 0xbc, 0x09, 0xc0,
  0x19, 0x34, 0xae, 0x41, 0x96, 0x41, 0x05, 0xbe, 0xef, 0xec, 0x80, 0x3f,
  0xc0, 0xf0, 0x7b, 0xbe, 0x66, 0xc7, 0xef, 0x3d, 0x09, 0x22, 0xb0, 0x3e,
  0x8f, 0xc3, 0x91, 0xc0, 0x62, 0x2b, 0x29, 0x40, 0xbd, 0x15, 0xcb, 0x40,
  0xa5, 0xb2, 0xe5, 0xbf, 0x34, 0x20, 0xfd, 0xbf, 0x48, 0x17, 0x7f, 0x40,
  0x7b, 0x36, 0x28, 0x40, 0x50, 0xd3, 0x0f, 0x3f, 0xa8, 0xdf, 0x48, 0xc0,
  0x77, 0x06, 0x80, 0xc0, 0xc9, 0xb3, 0xf7, 0x3e, 0xdf, 0xdb, 0xf7, 0x3f,
  0x3e, 0x74, 0x9d, 0xc0, 0x66, 0x0a, 0x3d, 0xbd, 0x2a, 0xc3, 0xac, 0xbf,
  0x1e, 0x3a, 0xda, 0xc0, 0x17, 0xea, 0x4b, 0x3f, 0xd7, 0x9e, 0xec, 0xbf,
  0x7c, 0x9a, 0x0b, 0xc0, 0x91, 0xc5, 0x09, 0xbe, 0x7a, 0xd4, 0x04, 0xc0,
  0xf4, 0x52, 0xfe, 0x3f, 0x12, 0x25, 0x92, 0xbe, 0x0b, 0xc5, 0x83, 0x40,
  0xd8, 0xec, 0x4d, 0xc0, 0x61, 0xb2, 0xf9, 0xbd, 0x2f, 0xeb, 0xbe, 0x3f,
  0x07, 0x80, 0x0a, 0xc0, 0x9c, 0x6e, 0x9a, 0x40, 0x7e, 0xaa, 0x22, 0x3f,
  0xf6, 0x68, 0xc5, 0x40, 0x6a, 0xc2, 0x49, 0x40, 0x43, 0x71, 0x35, 0xc1,
  0xd7, 0xb2, 0x30, 0xbf, 0x80, 0x21, 0x25, 0x3b, 0x2b, 0xc2, 0x51, 0xbe,
  0x3c, 0x9b, 0x93, 0xc0, 0x13, 0xbf, 0x9a, 0xc0, 0xd2, 0x8c, 0x86, 0x40,
  0xf7, 0x09, 0x21, 0xbe, 0xea, 0x1a, 0x0f, 0x40, 0x68, 0x7f, 0x7a, 0x40,
  0x1e, 0x14, 0xa7, 0xbf, 0xb8, 0x54, 0xed, 0xc0, 0x66, 0xd5, 0x6f, 0xbe,
  0xbd, 0xc5, 0x26, 0xc0, 0x31, 0x42, 0x60, 0xbe, 0x0c, 0x47, 0x45, 0xbe,
  0x0f, 0x5d, 0x4f, 0x40, 0x0a, 0x2c, 0x8f, 0x40, 0x21, 0xd6, 0x40, 0x3e,
  0x93, 0xd5, 0x8b, 0xc0, 0x76, 0x68, 0x3a, 0xbe, 0x50, 0x50, 0xa5, 0x3c,
  0xf6, 0x48, 0xb1, 0xc0, 0xad, 0x58, 0xbb, 0xbd, 0xc3, 0xb5, 0x48, 0x40,
  0x99, 0x9b, 0x5f, 0xbd, 0x4a, 0x3f, 0xf0, 0x3f, 0x0c, 0xad, 0xad, 0xc1,
  0xff, 0x64, 0xe2, 0xbc, 0x63, 0xac, 0x87, 0xbf, 0xfb, 0xe3, 0x93, 0x3e,
  0x9a, 0x28, 0xcd, 0x3d, 0x38, 0xa1, 0x88, 0xbe, 0x76, 0x70, 0x93, 0x40,
  0x6a, 0xc9, 0x29, 0xc0, 0x5f, 0x85, 0xc8, 0xc0, 0x2b, 0x30, 0x05, 0x40,
  0x7a, 0xb8, 0xff, 0x3f, 0xe3, 0x86, 0x7e, 0xc0, 0x5f, 0xc4, 0x29, 0xc0,
  0x8a, 0x64, 0x0e, 0xbf, 0x73, 0x05, 0x44, 0x40, 0xfb, 0x3f, 0x80, 0x40,
  0x85, 0x14, 0x01, 0x40, 0x35, 0x8a, 0xf8, 0xbf, 0x33, 0xb0, 0x9a, 0x40,
  0xc7, 0x14, 0x8d, 0xbe, 0xf9, 0xdb, 0xac, 0x3f, 0x17, 0xa0, 0xd9, 0x40,
  0xc4, 0x33, 0x03, 0x3e, 0xdc, 0x37, 0xdf, 0x3f, 0x1e, 0xf6, 0x13, 0x40,
  0x8d, 0x8e, 0x87, 0xbe, 0xe0, 0x2c, 0x0b, 0x40, 0xce, 0xb0, 0xfb, 0xbf,
  0xce, 0x59, 0x42, 0xbe, 0xc3, 0x61, 0x83, 0xc0, 0xcd, 0xc8, 0x4d, 0x40,
  0x4b, 0x6a, 0x9c, 0x3d, 0xe1, 0x85, 0xb4, 0x3f, 0x13, 0x85, 0x0e, 0x40,
  0x71, 0x00, 0x9c, 0xc0, 0xff, 0x62, 0x29, 0xbf, 0xa2, 0xcf, 0xc8, 0xc0,
  0xce, 0x80, 0x52, 0xc0, 0xfd, 0xfd, 0x34, 0x41, 0x95, 0x5f, 0xdb, 0x3e,
  0xac, 0x45, 0x86, 0xbd, 0xf2, 0xb3, 0xc3, 0xbd, 0x46, 0x1f, 0x93, 0x40,
  0x62, 0xad, 0x9a, 0x40, 0x1b, 0x1e, 0x89, 0xc0, 0xd0, 0x49, 0x47, 0x3e,
  0xae, 0x8f, 0x0d, 0xc0, 0x70, 0x8b, 0x7c, 0xc0, 0x77, 0x12, 0xa8, 0x3f,
  0x5a, 0xa0, 0xeb, 0x40, 0xec, 0xe1, 0xc7, 0xbd, 0x40, 0x4f, 0x27, 0x40,
  0x96, 0x74, 0x35, 0xbe, 0x04, 0xb1, 0x5b, 0x3e, 0xa2, 0x03, 0x54, 0xc0,
  0x45, 0x70, 0x8e, 0xc0, 0x5e, 0x43, 0xff, 0x3c, 0xf6, 0xc4, 0x8c, 0x40,
  0xd0, 0xb6, 0x96, 0x3c, 0xa7, 0x2e, 0x87, 0xbe, 0xc3, 0xb7, 0xb1, 0x40,
  0x4e, 0xef, 0xff, 0xff, 0x04, 0x00, 0x00, 0x00, 0x3c, 0x0f, 0x00, 0x00,
  0x6d, 0xe5, 0x41, 0x3e, 0xaf, 0x8e, 0x6c, 0xbe, 0x5c, 0xb3, 0xc5, 0xbd,
  0x3d, 0xc4, 0x2a, 0xbe, 0x4c, 0xd3, 0x17, 0xbe, 0x20, 0x0f, 0x26, 0xbd,
  0xb4, 0x3c, 0xe0, 0x3c, 0xfa, 0x1d, 0xc7, 0x3d, 0xda, 0xec, 0xdf, 0xbd,
  0x57, 0x4a, 0x21, 0x3e, 0xe5, 0xde, 0x4b, 0xbe, 0xdf, 0x4a, 0x81, 0xbe,
  0x1a, 0x36, 0x38, 0x3e, 0x1d, 0x20, 0xaa, 0xbd, 0xcf, 0x6b, 0x49, 0xbe,
  0xe0, 0x50, 0x2a, 0xbd, 0x0b, 0x1b, 0x0d, 0x3e, 0x32, 0x27, 0x30, 0xbc,
  0x44, 0xc5, 0x06, 0x3e, 0x83, 0x68, 0x57, 0xbe, 0x04, 0xf6, 0x33, 0xbe,
  0x8c, 0xb6, 0x18, 0x3e, 0x58, 0x4a, 0x43, 0xbf, 0x5e, 0x65, 0x1e, 0xbe,
  0xf9, 0x84, 0x93, 0xbe, 0x11, 0x10, 0xac, 0x3e, 0xa4, 0x57, 0x4e, 0x3c,
  0xa6, 0x56, 0xa4, 0x3d, 0x8d, 0x51, 0xaf, 0xbd, 0x1e, 0x2c, 0x48, 0xbc,
  0x83, 0x33, 0xd1, 0xbd, 0xc2, 0x3e, 0x1d, 0xbe, 0x3b, 0x8e, 0x80, 0xbe,
  0xf7, 0xdf, 0x1f, 0x3d, 0x2a, 0x97, 0xf6, 0xbd, 0xb5, 0xd7, 0xc1, 0x3d,
  0xc7, 0x91, 0x9c, 0xbd, 0x6f, 0xb2, 0xbe, 0x3c, 0x20, 0x20, 0x06, 0x3e,
  0x4a, 0xa7, 0xbf, 0xbb, 0xce, 0xbb, 0x8a, 0xbe, 0x2e, 0x71, 0x2c, 0xbc,
  0x34, 0x5a, 0x4f, 0x3d, 0xe5, 0xc3, 0x29, 0xbe, 0x50, 0xc2, 0x0a, 0xbe,
  0x57, 0x9d, 0x41, 0x3f, 0xa3, 0x12, 0x0a, 0x40, 0xf1, 0xe5, 0x0f, 0xbe,
  0x1f, 0xf7, 0xaf, 0xbf, 0x40, 0x0e, 0xb8, 0x3e, 0xf9, 0x3c, 0x8c, 0xbf,
  0x5a, 0x1b, 0x48, 0xbf, 0x81, 0x57, 0x25, 0xc0, 0x28, 0xd7, 0x36, 0xc0,
  0xbb, 0xae, 0x2f, 0xbf, 0x8b, 0x23, 0x0d, 0x40, 0x78, 0xc3, 0xe3, 0x3f,
  0xc2, 0xdb, 0x37, 0x3f, 0x69, 0x71, 0xb2, 0x3e, 0xef, 0x0a, 0x27, 0x3f,
  0xe0, 0xe2, 0xa4, 0x3e, 0x85, 0xa2, 0xa8, 0xbe, 0xb2, 0xba, 0xac, 0xbe,
  0x4e, 0x61, 0x12, 0xbf, 0x97, 0x8f, 0xbd, 0xbe, 0x26, 0x92, 0x82, 0x40,
  0x6c, 0xae, 0xe1, 0xbf, 0xb8, 0x8b, 0x2c, 0xbf, 0x5f, 0xe1, 0x00, 0xbf,
  0x55, 0x17, 0xcb, 0xbe, 0x64, 0x2a, 0x1e, 0x40, 0x3a, 0xb8, 0xc2, 0x3e,
  0x92, 0x53, 0x18, 0x3f, 0xdb, 0x25, 0xc4, 0x3e, 0xc9, 0xfe, 0x03, 0x3f,
  0x58, 0x72, 0x7d, 0xbe, 0x4a, 0xf7, 0x79, 0xbd, 0xd8, 0x48, 0x55, 0xbe,
  0x06, 0xd0, 0x30, 0xbe, 0xac, 0x9b, 0x2c, 0xbe, 0xe1, 0x8b, 0x90, 0xbe,
  0x67, 0xe8, 0x31, 0xbe, 0x24, 0x55, 0xf9, 0x3d, 0x6e, 0x93, 0x8a, 0xbc,
  0x03, 0x97, 0x6a, 0x3d, 0x52, 0xf9, 0x35, 0x3e, 0xc1, 0xc0, 0x44, 0xbe,
  0xf7, 0x88, 0xd5, 0xbc, 0x3d, 0x39, 0xd2, 0xbc, 0x72, 0x2e, 0xfa, 0x3d,
  0x24, 0x55, 0xfa, 0xbf, 0x05, 0x42, 0x98, 0xbf, 0x3d, 0xb9, 0x7d, 0xbc,
  0xd4, 0x31, 0xf3, 0xbe, 0xee, 0x31, 0x82, 0x3e, 0x1d, 0x28, 0x3b, 0x3f,
  0x96, 0x08, 0x75, 0x3e, 0xda, 0xd8, 0x2d, 0xbf, 0xad, 0x4e, 0x36, 0xbf,
  0x53, 0x30, 0x98, 0xbe, 0x59, 0x82, 0xf9, 0x3d, 0xa0, 0xa9, 0x93, 0x3f,
  0x76, 0x9e, 0x05, 0x3f, 0xc3, 0xd9, 0x0d, 0xbc, 0x7a, 0xf5, 0x2e, 0x3d,
  0xb1, 0xf7, 0xf1, 0x3c, 0x76, 0xc0, 0x40, 0x3e, 0xe7, 0xc5, 0x8d, 0xbe,
  0xb9, 0x5b, 0x03, 0xbe, 0x6e, 0xf9, 0x84, 0x3c, 0x1a, 0x2b, 0x8f, 0x3c,
  0x79, 0x82, 0x30, 0x3e, 0xe6, 0xef, 0xc2, 0x3d, 0x3e, 0xe6, 0xa9, 0xbe,
  0x53, 0x80, 0x26, 0xbe, 0x9f, 0x83, 0x42, 0xbe, 0xc7, 0xee, 0x4c, 0xbe,
  0x5c, 0x32, 0xdd, 0x3d, 0xc2, 0x39, 0xc9, 0xbd, 0x1f, 0x31, 0xd5, 0x3d,
  0x66, 0x79, 0x4e, 0x3d, 0x92, 0x97, 0x46, 0xbd, 0x5d, 0x19, 0x2d, 0xbe,
  0xc9, 0xe1, 0x03, 0xbf, 0x13, 0x11, 0x99, 0xbe, 0xb8, 0x74, 0x29, 0x3e,
  0xda, 0xcb, 0xc4, 0xbe, 0x64, 0xbc, 0x0e, 0xbf, 0x15, 0x76, 0x3f, 0xbe,
  0x14, 0x3c, 0xc5, 0xbd, 0xfe, 0x97, 0xea, 0x3e, 0xbd, 0x4b, 0x46, 0x3d,
  0xf8, 0x00, 0x82, 0xbe, 0x97, 0x27, 0xb2, 0xbe, 0x35, 0x37, 0xe2, 0xbd,
  0x62, 0xab, 0x56, 0x3d, 0x77, 0x9c, 0x57, 0xbe, 0xc7, 0x50, 0x03, 0x3d,
  0x16, 0xa0, 0xc2, 0xbd, 0x93, 0xbe, 0x30, 0x3e, 0x2b, 0xf0, 0x3e, 0x3d,
  0x06, 0x3e, 0x89, 0xbe, 0x1d, 0xa7, 0xb0, 0xbd, 0xc2, 0xe7, 0x1a, 0x3d,
  0x57, 0x5f, 0x87, 0xbd, 0x48, 0x6c, 0x39, 0x3e, 0xa1, 0x8e, 0xe4, 0xbd,
  0x39, 0xdf, 0xc6, 0x3e, 0x8a, 0xa3, 0x2a, 0xbe, 0x24, 0x68, 0xcc, 0xbd,
  0x42, 0x22, 0x19, 0xbe, 0xa8, 0xa3, 0xe9, 0xbd, 0xcc, 0x52, 0x37, 0xbe,
  0x33, 0xfd, 0xee, 0xbd, 0xa7, 0x7c, 0x56, 0xbd, 0x5b, 0x08, 0x13, 0x3f,
  0x47, 0x5e, 0x92, 0x3c, 0x35, 0x05, 0x4a, 0xbf, 0x6b, 0x37, 0x91, 0xbf,
  0x9e, 0x7e, 0x61, 0xbe, 0xcb, 0x3b, 0x02, 0x3f, 0x67, 0x72, 0xd2, 0x3e,
  0xc2, 0xa3, 0x0f, 0x3f, 0x50, 0x42, 0x02, 0xbf, 0x0e, 0xec, 0x7b, 0x3e,
  0x75, 0x1f, 0x7a, 0xbf, 0x05, 0xd8, 0x44, 0xbe, 0xf3, 0xc8, 0xe7, 0x3e,
  0x85, 0x8b, 0xf0, 0x3e, 0x53, 0x20, 0x16, 0x3f, 0xae, 0xa0, 0x31, 0xc0,
  0x59, 0xc0, 0x0d, 0x40, 0x17, 0xdd, 0x3d, 0x3e, 0xf6, 0x98, 0x0b, 0x3f,
  0x45, 0x3c, 0xa4, 0x3e, 0xb6, 0xa1, 0x16, 0xc0, 0xb7, 0xb0, 0xb0, 0xbe,
  0x27, 0xec, 0x44, 0xbf, 0x53, 0x5b, 0xf9, 0xbe, 0x69, 0x75, 0x2d, 0xbe,
  0x93, 0xc6, 0xdb, 0x3f, 0xdd, 0x0a, 0x1b, 0x40, 0xc5, 0xc9, 0x88, 0xbd,
  0xe1, 0x3a, 0x78, 0xbf, 0xae, 0x91, 0xf3, 0xbe, 0x39, 0xcd, 0x33, 0xc0,
  0x8f, 0xde, 0x0e, 0xbd, 0x70, 0xda, 0xdc, 0xbf, 0x4d, 0xc6, 0x1d, 0xc0,
  0xe1, 0x3e, 0xc6, 0xbf, 0x00, 0x98, 0xd2, 0x3f, 0x07, 0x24, 0x94, 0x3f,
  0x1f, 0x5d, 0x4e, 0x3f, 0x13, 0x44, 0x87, 0x3e, 0xb5, 0xa9, 0x77, 0x3e,
  0xb2, 0x73, 0x80, 0x3f, 0x77, 0x75, 0x15, 0x40, 0xb6, 0xbb, 0x2b, 0x3e,
  0x2a, 0x62, 0xd5, 0xbf, 0x2c, 0x5a, 0x9d, 0x3e, 0x00, 0x34, 0x84, 0xbf,
  0x8b, 0x44, 0x3b, 0xbf, 0x20, 0xb7, 0x20, 0xc0, 0xbb, 0xe7, 0x4d, 0xc0,
  0x08, 0xb8, 0x4f, 0xbf, 0xbc, 0x0d, 0x09, 0x40, 0xe2, 0xe0, 0xf3, 0x3f,
  0xb7, 0xa9, 0x23, 0x3f, 0x5e, 0xb6, 0x96, 0x3e, 0x1f, 0x21, 0x1d, 0x3f,
  0x3a, 0x89, 0x87, 0x3f, 0xed, 0xab, 0xc3, 0x3d, 0xb7, 0xae, 0x3d, 0xbf,
  0x42, 0xdd, 0x85, 0xbf, 0xbe, 0x2c, 0x01, 0xbd, 0x92, 0xb1, 0x94, 0x40,
  0x14, 0xcf, 0x4a, 0xbe, 0x95, 0x7f, 0xce, 0xbf, 0xa2, 0x9e, 0x15, 0xbf,
  0xde, 0x59, 0x14, 0xbf, 0x2e, 0xfd, 0x21, 0x3f, 0xd7, 0x68, 0x10, 0x3f,
  0x84, 0xc1, 0x0f, 0xbd, 0xfe, 0x95, 0xfb, 0x3e, 0x36, 0x06, 0x6b, 0xbc,
  0xf0, 0x8f, 0xe7, 0xbd, 0xaa, 0x27, 0xe0, 0x3e, 0x9a, 0x19, 0xda, 0x3e,
  0xc3, 0xc5, 0x04, 0x3e, 0x91, 0xb7, 0x68, 0x3d, 0x94, 0x4d, 0x5e, 0xbf,
  0x36, 0x0c, 0x78, 0x3e, 0x9e, 0x69, 0x2d, 0x3e, 0xa9, 0x98, 0xfc, 0xbe,
  0x4f, 0x10, 0x75, 0x3d, 0xb5, 0xb4, 0xcc, 0xbe, 0x51, 0x94, 0x9e, 0xbe,
  0x3f, 0x28, 0xa1, 0xbe, 0x05, 0x35, 0x88, 0xbe, 0xc9, 0x1c, 0x6e, 0x3e,
  0x4f, 0xaf, 0xc5, 0x3c, 0x56, 0x4d, 0x49, 0x3f, 0xda, 0x3d, 0xdc, 0x3d,
  0x72, 0xf2, 0x62, 0xbe, 0x39, 0x0d, 0xca, 0x3e, 0x57, 0x7e, 0x62, 0xc0,
  0xf5, 0xa0, 0x5f, 0x3f, 0x35, 0x26, 0x69, 0xbf, 0x4e, 0xde, 0x68, 0xbf,
  0xfb, 0xb5, 0x74, 0x3e, 0x6c, 0xaf, 0x37, 0xbf, 0xa1, 0x93, 0x03, 0xbf,
  0x47, 0xeb, 0x3f, 0xbf, 0xa5, 0xed, 0x3c, 0xbe, 0x51, 0x30, 0xd5, 0xbe,
  0x69, 0x00, 0xa5, 0x3f, 0xe3, 0x3b, 0x6d, 0x3e, 0x8c, 0x7e, 0x01, 0xbf,
  0xe2, 0x94, 0x57, 0xbe, 0x58, 0xdc, 0x1b, 0xbe, 0xeb, 0xb3, 0xce, 0x3f,
  0xa2, 0x60, 0x34, 0x3f, 0x53, 0xed, 0x84, 0xbf, 0x89, 0x58, 0x14, 0xbf,
  0x39, 0xcb, 0xf7, 0xbd, 0xbe, 0x35, 0x81, 0xbf, 0x61, 0xaf, 0x7a, 0xbf,
  0xc8, 0x9c, 0x15, 0x3e, 0x14, 0x26, 0x9e, 0xbe, 0x16, 0x12, 0x29, 0xbe,
  0x6f, 0x42, 0x97, 0xbe, 0xa4, 0x42, 0x3b, 0x3e, 0xf4, 0x87, 0x8a, 0x3e,
  0x6b, 0x4a, 0x6a, 0x3d, 0x47, 0xed, 0x38, 0xbd, 0x3a, 0x89, 0x94, 0xbf,
  0x2f, 0xdb, 0x4b, 0x3e, 0xfe, 0xdc, 0x28, 0xbf, 0x78, 0xa3, 0x40, 0x3e,
  0xc1, 0x1b, 0xa0, 0x3e, 0x12, 0x98, 0xa9, 0xbe, 0xc5, 0xee, 0x97, 0xbe,
  0xc0, 0x67, 0x3b, 0xbf, 0x05, 0x3e, 0x57, 0xbe, 0x5d, 0x5f, 0x76, 0xbb,
  0x9b, 0xb4, 0x3c, 0x3f, 0x25, 0x5b, 0x3c, 0x3f, 0xba, 0xc1, 0xcd, 0x3e,
  0xb9, 0xec, 0x95, 0x3e, 0x44, 0x30, 0xd6, 0x3e, 0xba, 0x6d, 0x82, 0xc0,
  0xbd, 0x88, 0x44, 0x3f, 0x89, 0x56, 0x9d, 0xbf, 0xf3, 0x71, 0xbd, 0xbe,
  0x62, 0xc0, 0x1e, 0x3f, 0xd0, 0x21, 0x30, 0xc0, 0x36, 0xd7, 0xe8, 0x3c,
  0xc7, 0xa1, 0xbf, 0xbf, 0xdb, 0xe4, 0xa7, 0xbe, 0x90, 0x35, 0xf1, 0xbd,
  0x6c, 0xdf, 0x94, 0xbf, 0xdf, 0x27, 0x9d, 0xbd, 0x26, 0x01, 0xd2, 0x3e,
  0x05, 0xa2, 0xf3, 0x3e, 0x09, 0xb9, 0xa1, 0x3f, 0x9b, 0x49, 0x2c, 0x3f,
  0x1f, 0x11, 0x9e, 0x3d, 0x3c, 0xef, 0xfc, 0x3f, 0xa2, 0x33, 0x89, 0x3f,
  0x3e, 0xe0, 0xd3, 0x3f, 0xfb, 0x98, 0x81, 0xbf, 0xf1, 0xa0, 0xce, 0x3e,
  0x26, 0x40, 0x93, 0xbe, 0xfe, 0x73, 0xa5, 0x3b, 0xa8, 0x24, 0x6f, 0x3d,
  0x32, 0x55, 0xc2, 0x3f, 0x6c, 0x64, 0x2b, 0x3f, 0x49, 0x71, 0x9b, 0xbf,
  0xc2, 0x6f, 0x7b, 0xc0, 0x3f, 0x0d, 0x82, 0xbd, 0x55, 0x16, 0x44, 0x40,
  0xfd, 0xf9, 0x16, 0xc0, 0x0a, 0x3e, 0x70, 0xc0, 0x19, 0xde, 0x90, 0xc0,
  0x21, 0xd7, 0xa0, 0xbf, 0x1e, 0x70, 0x03, 0x40, 0x16, 0x91, 0xc4, 0x3f,
  0xfa, 0xc6, 0x26, 0x3f, 0x9e, 0xab, 0x79, 0xbe, 0x8b, 0x63, 0xa2, 0x3f,
  0x49, 0xb3, 0xb9, 0xbe, 0xaa, 0x97, 0x13, 0xbf, 0x1c, 0x5c, 0x27, 0xbe,
  0x08, 0x37, 0x89, 0xbd, 0xbf, 0x33, 0xa5, 0xbc, 0x76, 0x69, 0xef, 0x3f,
  0x73, 0x3c, 0xfa, 0xbe, 0xd6, 0xad, 0xa4, 0xbd, 0x3b, 0x85, 0xd2, 0x3e,
  0x90, 0x86, 0x4e, 0xbc, 0x70, 0xb4, 0xdb, 0x3e, 0x91, 0xc5, 0x00, 0xbe,
  0x0b, 0xeb, 0xcc, 0x3d, 0x10, 0x98, 0xea, 0x3d, 0x51, 0x7a, 0x45, 0xbd,
  0x63, 0x34, 0x3e, 0x3e, 0x3e, 0xd8, 0x56, 0xbe, 0xc1, 0xaf, 0x85, 0xbe,
  0xb4, 0x0a, 0x33, 0x3e, 0x71, 0x45, 0x2c, 0x3d, 0x9e, 0xb1, 0xd5, 0xbd,
  0x9c, 0xc7, 0x75, 0x3e, 0x62, 0xf6, 0x2f, 0xbe, 0xd9, 0xe1, 0x91, 0xbd,
  0x5e, 0xdd, 0x4e, 0xbe, 0x24, 0xa7, 0xda, 0x3d, 0x9a, 0xd5, 0x97, 0x3c,
  0x3b, 0x03, 0xbd, 0x3d, 0xa1, 0x13, 0x70, 0xbe, 0x33, 0xec, 0x54, 0xbe,
  0x1a, 0x5e, 0x15, 0x3f, 0x8d, 0x1b, 0x03, 0x3f, 0xb5, 0xe4, 0x13, 0xbf,
  0x87, 0x89, 0x84, 0x3d, 0x36, 0x84, 0x0d, 0xbf, 0x88, 0xc0, 0xd9, 0x3e,
  0xe6, 0x88, 0xfc, 0xbd, 0x0c, 0xca, 0x80, 0xbe, 0x06, 0x9b, 0xe0, 0xbd,
  0xdf, 0x76, 0x31, 0xbf, 0xc7, 0x0d, 0x0f, 0x3f, 0x1e, 0x78, 0x30, 0xbe,
  0x00, 0xa3, 0xed, 0xbe, 0xac, 0x8c, 0xa9, 0xbe, 0xbf, 0x10, 0x7f, 0xbe,
  0xf1, 0xe6, 0x70, 0x3f, 0xc2, 0x53, 0x61, 0x3e, 0x18, 0x08, 0x1e, 0xbe,
  0x33, 0xe0, 0x8d, 0xbe, 0xa3, 0xa7, 0xb5, 0xbe, 0x88, 0xd0, 0x55, 0x3f,
  0x9f, 0x0e, 0x9f, 0xbf, 0x3d, 0x9f, 0x7e, 0xbd, 0x45, 0xcb, 0x7c, 0xbe,
  0xad, 0xbf, 0x44, 0xbe, 0x0f, 0x9a, 0x8c, 0x3f, 0xa0, 0x70, 0xa5, 0xbe,
  0xce, 0xad, 0xb3, 0x3e, 0xdd, 0x13, 0x4d, 0x3e, 0x83, 0x73, 0x37, 0x3d,
  0x0e, 0xb1, 0xe9, 0x3f, 0x13, 0xc5, 0x6b, 0x3b, 0xb8, 0xcf, 0x24, 0xbe,
  0x9f, 0x7a, 0xce, 0x3d, 0x34, 0xca, 0xd2, 0xbe, 0x2b, 0xd3, 0xef, 0xbe,
  0x03, 0x08, 0xb7, 0x3e, 0x7e, 0xaa, 0xf7, 0xbd, 0xcb, 0x4d, 0x15, 0x3c,
  0x57, 0xe4, 0x81, 0xbf, 0x00, 0x90, 0xe9, 0x3e, 0xb3, 0x61, 0x10, 0xbf,
  0x34, 0x59, 0x0d, 0x3f, 0xed, 0x23, 0xc1, 0x3e, 0xa6, 0x41, 0xb0, 0x3d,
  0x06, 0x39, 0xdd, 0x3e, 0x85, 0x57, 0xd2, 0xbe, 0x3d, 0xba, 0xee, 0xbe,
  0xcd, 0x76, 0xb0, 0x3d, 0x86, 0x9b, 0x31, 0xbe, 0x53, 0x95, 0x3a, 0xbe,
  0x4e, 0x16, 0x63, 0x3d, 0x34, 0x62, 0xf2, 0xbe, 0x6c, 0x1c, 0x11, 0x3e,
  0x3b, 0x6f, 0x92, 0xbe, 0x40, 0xdb, 0x65, 0x3e, 0x01, 0x99, 0xec, 0x3b,
  0x27, 0xd0, 0x13, 0x3f, 0xdd, 0x3b, 0x11, 0x3e, 0x29, 0xf9, 0x70, 0xbe,
  0xf5, 0x10, 0x55, 0xbf, 0xdb, 0x52, 0xb2, 0xbf, 0x3e, 0x27, 0xdd, 0x3e,
  0xc8, 0xb0, 0x6b, 0x3d, 0x99, 0xca, 0xb9, 0xbe, 0xe2, 0xfb, 0x1b, 0x40,
  0xdc, 0xcb, 0x93, 0x3f, 0x56, 0x64, 0x50, 0x3f, 0x91, 0x47, 0xd6, 0x3e,
  0xa6, 0x86, 0xed, 0xbe, 0x4f, 0xd2, 0x75, 0xbf, 0x1d, 0x3e, 0x6b, 0x3e,
  0x57, 0x6b, 0x0d, 0xbf, 0xd1, 0x9f, 0x85, 0x3e, 0xbc, 0x0e, 0xd9, 0xbc,
  0xcc, 0xb9, 0x88, 0xbc, 0xc7, 0x43, 0x3a, 0xbe, 0x15, 0x22, 0x66, 0x3e,
  0x30, 0x47, 0x60, 0xbe, 0x43, 0xba, 0x12, 0xbd, 0x00, 0x8b, 0x2a, 0xbe,
  0x14, 0xf8, 0x03, 0xbe, 0x8a, 0xf7, 0x4c, 0xbe, 0x35, 0x87, 0x30, 0x3e,
  0x7f, 0x25, 0x60, 0x3e, 0x0c, 0x28, 0x70, 0xbe, 0xa5, 0x2d, 0x04, 0x3e,
  0xc2, 0x56, 0x37, 0xbe, 0xea, 0xc9, 0xbc, 0xbd, 0xa1, 0xcd, 0x8c, 0xbe,
  0xe7, 0xdb, 0xf2, 0x3e, 0xed, 0x1f, 0x13, 0x40, 0x26, 0x9f, 0x48, 0xbd,
  0x02, 0x38, 0xbb, 0xbf, 0xc8, 0x8a, 0xff, 0xbd, 0xf6, 0xa1, 0x54, 0xbf,
  0x2f, 0xaf, 0x64, 0xbf, 0x51, 0x1e, 0x30, 0xc0, 0x6d, 0xa0, 0x4d, 0xc0,
  0x50, 0xee, 0x76, 0xbf, 0xac, 0x58, 0x08, 0x40, 0x7b, 0x37, 0xf2, 0x3f,
  0x12, 0x14, 0x62, 0x3f, 0x03, 0x06, 0x72, 0x3e, 0x45, 0xd9, 0x73, 0x3f,
  0xc7, 0xde, 0x08, 0xbf, 0x65, 0x7e, 0x85, 0x3e, 0x9a, 0x41, 0x96, 0x3e,
  0x09, 0x5a, 0xec, 0x3d, 0x43, 0x18, 0x1a, 0x3f, 0xc5, 0xbc, 0xac, 0xbf,
  0xdd, 0xb0, 0x11, 0x3f, 0x8f, 0x87, 0x27, 0x3f, 0xb2, 0x17, 0xcd, 0x3e,
  0xf3, 0x3d, 0x49, 0x3f, 0xd2, 0x4a, 0x1e, 0xc0, 0x9c, 0x85, 0x5b, 0xbf,
  0x92, 0x6a, 0x97, 0x3d, 0x05, 0x64, 0xc9, 0xbe, 0xd8, 0xfa, 0x5a, 0xbe,
  0xd7, 0x5f, 0x47, 0xbe, 0xab, 0x8a, 0x6a, 0xbd, 0xf2, 0xd5, 0xf0, 0xbd,
  0x3b, 0xac, 0x7b, 0xbe, 0x1e, 0xd5, 0xa7, 0x3c, 0x66, 0xe8, 0x52, 0xbe,
  0x6a, 0xa6, 0x59, 0xbe, 0x4f, 0x5e, 0x02, 0xbe, 0x5b, 0x1b, 0xc6, 0xbd,
  0x37, 0xfb, 0x24, 0x3e, 0xb0, 0x80, 0x81, 0xbd, 0xb8, 0x44, 0x28, 0xbd,
  0x74, 0x6e, 0x9c, 0x3d, 0xcf, 0x2e, 0x16, 0x3e, 0xd9, 0x50, 0x3d, 0x3e,
  0xc6, 0xed, 0x99, 0xbf, 0x60, 0xe1, 0x05, 0xc0, 0xe8, 0xb7, 0xe1, 0xbe,
  0x1d, 0xc2, 0xbd, 0x3e, 0xf8, 0x77, 0xfc, 0xb9, 0xa6, 0x18, 0xbb, 0x3f,
  0x35, 0xca, 0xae, 0x3e, 0xee, 0x63, 0x9d, 0x3f, 0x06, 0xeb, 0x02, 0x40,
  0xa2, 0xe8, 0xca, 0x3e, 0xa2, 0x60, 0x50, 0xbf, 0x71, 0x5e, 0xb5, 0xbf,
  0x87, 0xae, 0x52, 0xbe, 0x4c, 0xb0, 0xc6, 0xbd, 0xc4, 0x28, 0xa4, 0xbe,
  0x07, 0x1d, 0x25, 0xbf, 0xda, 0xde, 0x65, 0xbc, 0x3e, 0x18, 0x83, 0xbd,
  0x33, 0x22, 0x0b, 0xbf, 0x53, 0x76, 0x98, 0xbe, 0x61, 0xc9, 0x8f, 0x3f,
  0x3d, 0x34, 0x91, 0xbf, 0xad, 0x94, 0xa8, 0xbe, 0xe2, 0x19, 0x98, 0xbe,
  0x6a, 0x53, 0x28, 0xbf, 0xc7, 0x78, 0x02, 0x40, 0x02, 0x04, 0x2d, 0x3f,
  0xd3, 0x91, 0x5b, 0x3d, 0x51, 0x42, 0x91, 0xbe, 0x51, 0x17, 0xff, 0xbd,
  0xe3, 0xce, 0x11, 0xbc, 0x10, 0x73, 0x45, 0x3d, 0x6e, 0xc2, 0x2d, 0xbe,
  0x08, 0xac, 0xb0, 0xbd, 0x61, 0x99, 0xac, 0x3d, 0x64, 0x4a, 0x16, 0x3c,
  0xb4, 0x10, 0xac, 0xbd, 0x1b, 0x52, 0xf4, 0x3d, 0xfe, 0x5d, 0xbc, 0xbe,
  0xff, 0xa2, 0x82, 0x3d, 0x25, 0xec, 0x91, 0xbe, 0x8a, 0x67, 0xe2, 0x3d,
  0x05, 0x90, 0xbb, 0xbd, 0x36, 0xc8, 0x3b, 0xbe, 0x30, 0x99, 0x8f, 0x3d,
  0x05, 0xcc, 0xc8, 0x3e, 0xa3, 0xc8, 0xb2, 0xbe, 0x9f, 0x4f, 0x98, 0xbe,
  0xf4, 0xd8, 0x1a, 0xbf, 0x5b, 0x50, 0xd4, 0xbe, 0xcf, 0x91, 0x0a, 0xbe,
  0xd6, 0x5d, 0xfd, 0xbe, 0x96, 0x4a, 0x37, 0x3e, 0x28, 0xca, 0xbc, 0xbe,
  0x7c, 0x3a, 0x97, 0xbe, 0xe8, 0x52, 0x22, 0xbe, 0x0f, 0xa8, 0x9c, 0xbe,
  0xea, 0xab, 0x18, 0xbe, 0x14, 0x68, 0x27, 0x3d, 0xac, 0x05, 0x02, 0xbe,
  0x5e, 0xfb, 0x8e, 0x3f, 0xf6, 0x0e, 0xfa, 0xbe, 0x27, 0x8c, 0xdb, 0xbc,
  0xd6, 0xb4, 0x00, 0xbf, 0xe5, 0x21, 0x81, 0xbf, 0x87, 0xbe, 0x09, 0x40,
  0x96, 0x8f, 0x8f, 0xbf, 0xc5, 0x1b, 0x8a, 0xbd, 0xb7, 0x4f, 0x36, 0x3d,
  0xac, 0xbf, 0xab, 0xbf, 0xef, 0x17, 0x83, 0x3f, 0xd7, 0xda, 0x22, 0x3d,
  0xb4, 0x7b, 0x83, 0xbe, 0xdf, 0xbe, 0x20, 0xbe, 0x1e, 0x40, 0x7a, 0x3e,
  0xcd, 0x9d, 0x5f, 0x3f, 0xa8, 0x4a, 0xbc, 0x3e, 0xd0, 0x47, 0x45, 0x3e,
  0x36, 0xbf, 0xfb, 0x3d, 0x0a, 0xb2, 0x9e, 0x3e, 0xb2, 0x1a, 0x52, 0xbf,
  0x5f, 0x08, 0x3d, 0xbe, 0x59, 0x05, 0x48, 0xbe, 0x46, 0xa4, 0xa8, 0xbe,
  0xff, 0x7a, 0x94, 0x3c, 0xc7, 0x96, 0xd1, 0xbf, 0x69, 0x8c, 0xd0, 0x3e,
  0xb2, 0x52, 0x4c, 0xbe, 0x4a, 0x8c, 0x9e, 0xbe, 0xa0, 0x9b, 0x5b, 0xbd,
  0xf3, 0x00, 0xa0, 0x3f, 0xaa, 0x9d, 0x56, 0x3f, 0x70, 0xe1, 0x21, 0xbf,
  0xa0, 0x2d, 0xd8, 0x3d, 0x42, 0x00, 0xb7, 0xbd, 0x30, 0xc1, 0x1a, 0x40,
  0x75, 0x36, 0x26, 0xbf, 0xf2, 0x3e, 0x69, 0xbf, 0x30, 0x2f, 0x70, 0x3f,
  0x90, 0x7c, 0xd8, 0xbe, 0xf6, 0x17, 0x56, 0x3d, 0xd7, 0x2b, 0xe4, 0x3e,
  0xcc, 0xdd, 0x2c, 0xc0, 0xa3, 0x8a, 0xfb, 0xbe, 0xd4, 0xca, 0x1a, 0xbf,
  0x47, 0x9b, 0x5a, 0xbf, 0x4a, 0xa8, 0x2c, 0xc0, 0x41, 0x8c, 0x81, 0xbe,
  0x96, 0xeb, 0x4c, 0x3f, 0x47, 0x40, 0x97, 0x3c, 0x15, 0xe0, 0x1d, 0x40,
  0x9b, 0xee, 0x89, 0xbe, 0x07, 0x55, 0x0e, 0x40, 0x06, 0xfd, 0x26, 0x40,
  0x9a, 0xb0, 0x25, 0x3f, 0x52, 0x75, 0xb6, 0xbf, 0x12, 0x5a, 0xe2, 0xbf,
  0x3a, 0x8b, 0xee, 0xbe, 0xa2, 0x59, 0xb2, 0x3d, 0x22, 0xbc, 0xa1, 0xbe,
  0xd2, 0x6f, 0xb8, 0x3f, 0xb4, 0xa2, 0x72, 0x3f, 0x57, 0x02, 0x2b, 0xbf,
  0x6d, 0x27, 0x16, 0xbf, 0x19, 0xe3, 0x24, 0xbf, 0xe3, 0x03, 0x66, 0xbf,
  0x63, 0x1a, 0xee, 0xbf, 0x55, 0xa1, 0x2e, 0xbf, 0x7f, 0x61, 0x80, 0xbf,
  0x85, 0x90, 0xdb, 0xbe, 0x36, 0x6e, 0x9f, 0x3f, 0xd6, 0x3b, 0x80, 0xbe,
  0x24, 0x9f, 0x0f, 0x3f, 0x66, 0x9a, 0x17, 0xbe, 0x99, 0x5c, 0x8c, 0xbe,
  0xe9, 0x1c, 0x87, 0x3f, 0x12, 0x99, 0xb2, 0xbd, 0x6b, 0x72, 0xf2, 0xbe,
  0x26, 0xf6, 0x12, 0xbf, 0x59, 0x27, 0xf5, 0xbe, 0xda, 0xb4, 0x8a, 0x40,
  0x2c, 0x94, 0x0b, 0xc0, 0xdd, 0xbd, 0x50, 0xbf, 0x6b, 0xba, 0x25, 0xbf,
  0xcc, 0x1a, 0xf4, 0xbe, 0x31, 0x7f, 0x35, 0x40, 0xe3, 0x55, 0xbd, 0x3e,
  0x60, 0x31, 0x23, 0x3f, 0xd2, 0xcc, 0x06, 0x3f, 0x55, 0xe1, 0x47, 0x3f,
  0x90, 0xfe, 0x29, 0xbd, 0xf1, 0xa8, 0xe3, 0x3d, 0x20, 0x9b, 0xbb, 0x3d,
  0x50, 0x42, 0x86, 0xbe, 0x50, 0xf7, 0x61, 0xbe, 0xae, 0x40, 0x86, 0x3e,
  0x2f, 0xab, 0x47, 0xbf, 0x62, 0x4c, 0x73, 0x3e, 0xd5, 0x83, 0x66, 0xbf,
  0xd4, 0xd2, 0x9b, 0x3c, 0x70, 0x70, 0xd1, 0xbd, 0x76, 0x61, 0x2d, 0x3e,
  0xb1, 0x4d, 0x91, 0xbe, 0x09, 0x76, 0x04, 0x3e, 0x31, 0x19, 0x85, 0x3d,
  0xea, 0x8b, 0xc5, 0xbd, 0xe0, 0x9d, 0x5c, 0x3c, 0x5a, 0x08, 0x6b, 0xbe,
  0x00, 0xe4, 0xfb, 0x3d, 0x70, 0x31, 0xe2, 0xbd, 0x72, 0x89, 0x08, 0x3e,
  0xa2, 0xb9, 0x80, 0xbe, 0xbc, 0xf2, 0xe8, 0xbd, 0x30, 0x6f, 0xa1, 0xbc,
  0x36, 0x40, 0x1a, 0xbe, 0xf8, 0xfb, 0x1c, 0x3d, 0xd9, 0xc5, 0x04, 0xbe,
  0x66, 0x49, 0x38, 0x3e, 0xf6, 0x3b, 0x08, 0xbe, 0x5c, 0x0c, 0x0a, 0xbd,
  0xd8, 0x6d, 0x8b, 0xbe, 0x50, 0xb4, 0x22, 0xbe, 0x34, 0xad, 0x80, 0xbd,
  0x3b, 0x26, 0x8e, 0x3d, 0x3a, 0xe3, 0x25, 0xbe, 0x5a, 0xe0, 0xb5, 0x3d,
  0x6f, 0x33, 0x74, 0x3d, 0x8c, 0x61, 0x16, 0x3e, 0x5a, 0xd7, 0x86, 0xbe,
  0xdb, 0x1b, 0x39, 0xbe, 0x13, 0xbb, 0x7a, 0xbe, 0x34, 0xaf, 0xb8, 0x3d,
  0x33, 0x19, 0xff, 0xbc, 0xe2, 0xcd, 0x3e, 0xbe, 0x21, 0xa4, 0x83, 0x3d,
  0xcc, 0x7b, 0x9a, 0x3f, 0x65, 0xe4, 0xe9, 0x3f, 0x8b, 0x33, 0x22, 0x3f,
  0x9a, 0x5f, 0x3c, 0x3f, 0xcc, 0xba, 0xc2, 0x3d, 0xa3, 0x5c, 0xa5, 0xc0,
  0x33, 0xb6, 0xce, 0x3e, 0x2d, 0x79, 0x27, 0x3e, 0x6a, 0x0f, 0x9e, 0xbf,
  0xb7, 0x89, 0x81, 0x3e, 0x71, 0xe5, 0xdc, 0xbf, 0x18, 0x80, 0x3e, 0xbf,
  0x04, 0x6f, 0xc1, 0xbd, 0x46, 0xf9, 0x07, 0xbf, 0x71, 0xfc, 0x10, 0xbf,
  0x8f, 0x9e, 0x62, 0xbe, 0x1f, 0x0c, 0x19, 0xbe, 0x93, 0x04, 0xb5, 0xbe,
  0x54, 0xd3, 0x38, 0xbf, 0xed, 0x37, 0x1b, 0xbe, 0x27, 0x1a, 0xce, 0x3e,
  0x68, 0x20, 0x95, 0xbe, 0xc4, 0x4a, 0xab, 0xbe, 0x88, 0x21, 0xef, 0xbe,
  0x18, 0x17, 0xe6, 0xbe, 0x8e, 0x4c, 0x73, 0x3f, 0xdd, 0x76, 0x96, 0xbd,
  0x76, 0xc9, 0x3f, 0x3f, 0x24, 0x01, 0x1d, 0x3f, 0x17, 0xcf, 0xea, 0x3d,
  0x51, 0x28, 0x38, 0xbe, 0x4a, 0x31, 0x9c, 0xbe, 0xd5, 0x60, 0xec, 0x3c,
  0x39, 0xc9, 0xa5, 0x3f, 0xee, 0xb3, 0x06, 0x3f, 0x7c, 0xc3, 0x1b, 0xc0,
  0x41, 0x84, 0x81, 0x3f, 0x64, 0xf7, 0xea, 0x3f, 0x7c, 0x33, 0xbd, 0x3f,
  0x3b, 0xd5, 0xac, 0x3f, 0x9b, 0xf6, 0x25, 0xc0, 0xdb, 0xbc, 0x38, 0xbf,
  0xf2, 0x93, 0xbe, 0xbe, 0xd4, 0xd5, 0xc2, 0xbc, 0x7d, 0x21, 0x6e, 0xbf,
  0x9c, 0x78, 0x7c, 0x3e, 0x8c, 0x8d, 0xbe, 0x3d, 0xec, 0xb3, 0x7a, 0xbe,
  0x44, 0x82, 0x81, 0xbe, 0xd6, 0x66, 0x02, 0xbe, 0x70, 0xc8, 0xd7, 0x3c,
  0xf8, 0xf1, 0x47, 0x3d, 0xc2, 0xb3, 0x43, 0xbe, 0x4e, 0x3c, 0x7b, 0xbe,
  0xa4, 0x4f, 0x50, 0xbe, 0x44, 0x9b, 0x6a, 0x3e, 0xea, 0xdb, 0x9f, 0xbd,
  0xa0, 0xa1, 0x0d, 0xbe, 0x56, 0xc9, 0x8b, 0x3e, 0x8e, 0x2a, 0x85, 0xbe,
  0x12, 0xb8, 0x9e, 0x3d, 0x98, 0x07, 0x56, 0xbc, 0x18, 0xf2, 0x8e, 0x3e,
  0xdf, 0x69, 0xa0, 0x3d, 0x00, 0xf5, 0x12, 0x3e, 0x67, 0xb7, 0xe9, 0xbf,
  0x16, 0x26, 0x42, 0x3f, 0x68, 0xf3, 0xdb, 0xbe, 0xb6, 0xe6, 0x88, 0xbe,
  0x84, 0xb1, 0xa9, 0x3e, 0xf3, 0xb8, 0x00, 0xbf, 0x55, 0x33, 0xd1, 0x3e,
  0x00, 0xa9, 0x43, 0xbf, 0x5c, 0x56, 0x40, 0xbd, 0x8f, 0xcb, 0x18, 0x3d,
  0xa2, 0xe2, 0x49, 0xbe, 0x86, 0x60, 0x48, 0x3f, 0x83, 0x73, 0xe6, 0x3e,
  0xc5, 0x9d, 0x81, 0x3f, 0x66, 0x28, 0x3e, 0x3e, 0x1b, 0xae, 0xc6, 0xc0,
  0x34, 0x7c, 0xeb, 0x3f, 0xdc, 0xf6, 0x99, 0x3f, 0xeb, 0x04, 0x34, 0x3e,
  0xb1, 0x09, 0x24, 0x3f, 0x70, 0x6a, 0x27, 0xc0, 0x1b, 0xc5, 0x55, 0xbf,
  0x24, 0xdc, 0x2c, 0xbe, 0x15, 0x33, 0xe7, 0xbe, 0x28, 0xa2, 0x0d, 0xbf,
  0x35, 0x34, 0x32, 0x3f, 0xeb, 0x01, 0xf8, 0x3e, 0x3f, 0x09, 0x21, 0xbf,
  0xb1, 0x6f, 0x46, 0xbf, 0x24, 0x50, 0x66, 0xbe, 0xde, 0x0f, 0xde, 0x3e,
  0xe6, 0xf1, 0x68, 0x3e, 0x47, 0x76, 0xa0, 0xbf, 0xdd, 0x99, 0xb5, 0xbe,
  0x57, 0x1a, 0x74, 0xbe, 0x8c, 0x55, 0xc5, 0x3e, 0x7f, 0x91, 0xcc, 0xbe,
  0x40, 0x71, 0x1c, 0x3f, 0xe3, 0x05, 0x7d, 0xbe, 0x8a, 0x48, 0x8a, 0x3d,
  0xee, 0xf3, 0x20, 0xc0, 0xcc, 0x9e, 0x5e, 0xc0, 0x0c, 0xeb, 0xd2, 0xbe,
  0x08, 0xa2, 0xb5, 0x3f, 0x73, 0x66, 0x21, 0x3f, 0x0f, 0x27, 0xfd, 0x3f,
  0xca, 0x40, 0x2e, 0x3d, 0xfd, 0xa3, 0x41, 0x40, 0x0b, 0xa2, 0x67, 0x40,
  0x45, 0x91, 0xf1, 0x3f, 0xf9, 0x23, 0x08, 0xc0, 0xda, 0xd1, 0x2a, 0xc0,
  0x9a, 0x57, 0xc9, 0xbd, 0x11, 0xce, 0x4c, 0xbe, 0x90, 0x52, 0x52, 0xbf,
  0x0c, 0xfb, 0xe3, 0xbc, 0xe2, 0x0f, 0x7a, 0xbe, 0x69, 0xbf, 0x33, 0x3b,
  0xe8, 0x06, 0xf1, 0x3d, 0xc7, 0x70, 0xa9, 0xbe, 0x51, 0x28, 0x08, 0x3e,
  0xdf, 0x63, 0x40, 0xbc, 0x1c, 0xff, 0xe1, 0xbd, 0x29, 0x55, 0x1c, 0xbd,
  0xb0, 0x61, 0x2c, 0x3e, 0xe0, 0x40, 0xe5, 0xbd, 0xae, 0xf0, 0x3a, 0x3b,
  0xa9, 0x60, 0x34, 0xbe, 0x12, 0x79, 0xd8, 0xbd, 0x2d, 0xe5, 0x42, 0xbe,
  0x32, 0xd7, 0x82, 0xbf, 0x2d, 0xcc, 0x7d, 0xbf, 0x35, 0xd3, 0x43, 0x3f,
  0x3a, 0x79, 0x32, 0x3e, 0x8f, 0x46, 0x88, 0x3e, 0xa8, 0xdd, 0x7e, 0xc0,
  0xb7, 0x83, 0xa8, 0x3f, 0x3b, 0xf9, 0x76, 0x3f, 0xac, 0x11, 0x9e, 0x3e,
  0x3e, 0x46, 0x06, 0xbd, 0xbd, 0x5d, 0xed, 0xbf, 0xa6, 0xa5, 0xb2, 0xbe,
  0x20, 0xf3, 0x47, 0x3f, 0x98, 0x01, 0x45, 0xbe, 0x7d, 0xe1, 0xab, 0x3e,
  0x80, 0xda, 0x31, 0x3e, 0xd8, 0x60, 0x84, 0xbe, 0xd0, 0x80, 0x88, 0xbc,
  0x18, 0xf8, 0xe1, 0xbd, 0xf2, 0x00, 0x38, 0x3e, 0x54, 0xc6, 0x54, 0xbd,
  0xc0, 0x59, 0x99, 0x3c, 0xf2, 0x88, 0x84, 0xbd, 0x37, 0x17, 0x25, 0xbe,
  0xbf, 0x0f, 0x02, 0xbe, 0xb0, 0x7c, 0xa5, 0x3c, 0x86, 0x0b, 0x5e, 0xbe,
  0xb6, 0x8b, 0xb3, 0xbd, 0x9a, 0xb6, 0x1b, 0x3e, 0x00, 0x05, 0x6e, 0x3b,
  0x24, 0x15, 0x5c, 0xbd, 0xf4, 0xa7, 0x4f, 0xbe, 0x48, 0x39, 0x00, 0xbd,
  0x48, 0x54, 0x7e, 0xbe, 0xf8, 0x2b, 0xf1, 0x3d, 0x78, 0x68, 0x18, 0xbe,
  0xd0, 0x12, 0x3a, 0x3d, 0xe0, 0xc0, 0x77, 0xbc, 0xf0, 0xdc, 0x82, 0xbd,
  0xf4, 0x61, 0x22, 0xbe, 0x6f, 0x40, 0x14, 0xbe, 0xa6, 0x3b, 0x58, 0x3e,
  0x4a, 0x02, 0x5b, 0x3e, 0xcc, 0xe0, 0xcb, 0x3d, 0x7a, 0x67, 0x6a, 0xbe,
  0x0d, 0x3c, 0xb1, 0xbf, 0x93, 0xdf, 0x3b, 0xbf, 0x95, 0xe7, 0x3b, 0x3e,
  0xd4, 0xa3, 0x97, 0x3f, 0x39, 0x94, 0x0c, 0x3f, 0x46, 0xcf, 0x1d, 0xc0,
  0x51, 0x41, 0xd6, 0x3f, 0x4a, 0x98, 0xad, 0x3f, 0x63, 0x35, 0xf8, 0x3f,
  0x0f, 0x50, 0x6e, 0x3f, 0xfa, 0x8e, 0x15, 0xc0, 0x35, 0xc9, 0x58, 0xbf,
  0x3a, 0x74, 0x5c, 0xbe, 0x96, 0x34, 0x84, 0xbe, 0x96, 0xda, 0x4b, 0xbf,
  0x79, 0x7f, 0xe3, 0x3e, 0xbb, 0xa3, 0x0c, 0x3f, 0xee, 0x10, 0xc4, 0x3e,
  0x4a, 0x0f, 0x29, 0x3e, 0x8a, 0x8d, 0x99, 0x3d, 0xdd, 0x81, 0x08, 0xc0,
  0xa4, 0x6c, 0x96, 0x3e, 0xd5, 0x3c, 0x8f, 0xbf, 0x5f, 0x16, 0x3d, 0xbc,
  0x88, 0x79, 0xa8, 0x3e, 0x83, 0xe0, 0xcf, 0xbf, 0x17, 0xf7, 0xbf, 0x3d,
  0xc1, 0x19, 0x88, 0xbf, 0x9b, 0x0d, 0x38, 0x3d, 0x65, 0x3c, 0x34, 0x3e,
  0x89, 0xbc, 0x72, 0x3f, 0x13, 0xc7, 0x84, 0x3d, 0x0c, 0xcb, 0x7a, 0xbe,
  0x77, 0x21, 0xd5, 0xbd, 0xe7, 0x03, 0xdd, 0xbe, 0x08, 0x0a, 0xda, 0xbe,
  0x4f, 0x0d, 0x34, 0xbe, 0xbc, 0x5d, 0x79, 0x3e, 0x2d, 0x9d, 0x4b, 0x3d,
  0x71, 0x1f, 0x1b, 0xbf, 0x13, 0xa2, 0x06, 0xbe, 0x05, 0x80, 0x2a, 0xbf,
  0x60, 0xdc, 0xf3, 0x3e, 0xff, 0xe8, 0x88, 0x3c, 0xde, 0x61, 0x55, 0x3e,
  0x96, 0x72, 0xfb, 0x3d, 0x1c, 0xf8, 0x4b, 0x3e, 0x44, 0x9b, 0x2f, 0xbe,
  0x36, 0xa1, 0x4c, 0x3f, 0x24, 0xa9, 0xad, 0xbb, 0x06, 0x15, 0x62, 0xc0,
  0xc8, 0xc6, 0xd1, 0x3f, 0x0e, 0x94, 0x1b, 0x3f, 0x2c, 0x9b, 0xef, 0x3e,
  0xfc, 0x00, 0xa6, 0x3e, 0xb0, 0xda, 0x1e, 0xc0, 0x33, 0xca, 0x46, 0xbf,
  0x4b, 0xae, 0x32, 0x3e, 0x0a, 0x2a, 0x9f, 0xbe, 0x1a, 0x0b, 0x4e, 0xbf,
  0x55, 0xf7, 0x83, 0xbe, 0xc0, 0x37, 0x67, 0x3d, 0xcc, 0x73, 0x3e, 0xbe,
  0x08, 0x5f, 0x75, 0xbe, 0x90, 0x99, 0x6b, 0x3d, 0x86, 0xab, 0x11, 0x3e,
  0x74, 0x61, 0x6a, 0xbe, 0xd7, 0x85, 0x7d, 0xbe, 0x52, 0xd5, 0x54, 0x3e,
  0xec, 0x6a, 0x61, 0xbe, 0x10, 0x7e, 0xa1, 0xbd, 0xd4, 0xe8, 0xd5, 0x3d,
  0xf1, 0xe8, 0x25, 0xbe, 0x68, 0x64, 0x0a, 0xbd, 0x28, 0xe4, 0xa0, 0x3d,
  0x8e, 0xce, 0x83, 0x3e, 0x44, 0x56, 0x19, 0xbe, 0x14, 0x40, 0x63, 0xbe,
  0x69, 0x39, 0x5c, 0xbe, 0x46, 0x6d, 0x5e, 0xbe, 0xc0, 0x6a, 0xd0, 0xbb,
  0xf6, 0x02, 0x32, 0xbe, 0x7b, 0xcc, 0x2f, 0xbe, 0x74, 0x18, 0xc8, 0x3d,
  0x12, 0x34, 0x0c, 0x3e, 0xc8, 0x70, 0x6d, 0xbe, 0x24, 0x79, 0xca, 0xbd,
  0x40, 0x76, 0x09, 0xbe, 0xd0, 0x91, 0xe1, 0x3d, 0xec, 0x33, 0x01, 0x3e,
  0x0e, 0x9b, 0x47, 0x3f, 0x67, 0x77, 0x55, 0x3f, 0xd7, 0x31, 0x76, 0x3e,
  0x12, 0x9a, 0x93, 0x3f, 0x5f, 0xe8, 0xc5, 0x3e, 0x93, 0x32, 0x9b, 0xc0,
  0x9b, 0x57, 0xee, 0x3f, 0xd5, 0x76, 0x95, 0x3f, 0x30, 0x5a, 0xc4, 0x3f,
  0x33, 0xec, 0x1f, 0x3f, 0xd8, 0xd4, 0x4b, 0xc0, 0x10, 0xce, 0x7c, 0xbf,
  0xcf, 0x7c, 0xcf, 0xbf, 0xb9, 0x6b, 0x97, 0xbe, 0x30, 0xdc, 0x38, 0xbf,
  0x96, 0xfe, 0xff, 0xff, 0x04, 0x00, 0x00, 0x00, 0x08, 0x00, 0x00, 0x00,
  0xff, 0xff, 0xff, 0xff, 0x0f, 0x00, 0x00, 0x00, 0xaa, 0xfe, 0xff, 0xff,
  0x04, 0x00, 0x00, 0x00, 0x04, 0x01, 0x00, 0x00, 0xe2, 0x3a, 0x3c, 0xbd,
  0x68, 0x58, 0x22, 0x41, 0xe4, 0xa8, 0xa7, 0xbb, 0x0d, 0xad, 0xd4, 0x3e,
  0xc4, 0x75, 0xba, 0xc0, 0x79, 0xba, 0x30, 0xbd, 0x24, 0x1b, 0xa5, 0x3f,
  0x18, 0xe4, 0x79, 0xbd, 0xef, 0xaf, 0xd5, 0x3f, 0xbc, 0xd3, 0x23, 0x3d,
  0x3b, 0x09, 0x42, 0xbf, 0x04, 0x10, 0xdd, 0x40, 0x80, 0x54, 0x17, 0xbf,
  0xa6, 0xf9, 0xab, 0x3e, 0x45, 0xc7, 0x04, 0xbf, 0x12, 0x25, 0x66, 0xbf,
  0x8e, 0xf7, 0xa7, 0x40, 0x07, 0x27, 0x00, 0x40, 0xaf, 0x96, 0x50, 0x3f,
  0x0c, 0x1d, 0x37, 0x40, 0xfb, 0xcd, 0x39, 0x40, 0x78, 0x8e, 0x32, 0x40,
  0x8d, 0xd4, 0x1e, 0xc0, 0x28, 0x41, 0x9b, 0xbc, 0x13, 0x1b, 0x07, 0x40,
  0x94, 0x4d, 0xf8, 0xbf, 0x82, 0x4d, 0x20, 0x40, 0x6b, 0x5f, 0x36, 0x3f,
  0x62, 0x6d, 0x9f, 0x40, 0x3b, 0x38, 0x53, 0xbc, 0x2e, 0x15, 0xe0, 0x3e,
  0xbd, 0x9c, 0xb6, 0x40, 0x1a, 0xde, 0x2e, 0xbc, 0xd5, 0x4c, 0xb2, 0x40,
  0x33, 0x60, 0x0c, 0x3e, 0x90, 0x6e, 0x04, 0xbe, 0x50, 0x4d, 0xe6, 0x40,
  0x95, 0x82, 0xd8, 0x3f, 0x46, 0x8a, 0x68, 0xbd, 0xab, 0xaa, 0xae, 0x3f,
  0x77, 0x76, 0x87, 0x40, 0xe9, 0x38, 0xbb, 0xbf, 0x8f, 0x27, 0xd8, 0xc0,
  0xec, 0xdd, 0x0d, 0xbd, 0x00, 0x00, 0x00, 0x00, 0x01, 0xbe, 0x5e, 0xbd,
  0xa7, 0x48, 0x4d, 0xbf, 0x30, 0xb5, 0x17, 0x3f, 0x65, 0xa9, 0x8a, 0x40,
  0x00, 0x00, 0x00, 0x00, 0x40, 0x84, 0xbc, 0xbe, 0xef, 0x41, 0xaf, 0x40,
  0x0e, 0x1d, 0x9f, 0x3f, 0x55, 0x83, 0x21, 0xbf, 0xc5, 0x80, 0x84, 0xbd,
  0x0c, 0xcf, 0x5f, 0x40, 0x00, 0x00, 0x00, 0x00, 0x00, 0x00, 0x00, 0x00,
  0x6e, 0xd4, 0x61, 0xbf, 0x6c, 0x3c, 0x8a, 0x3f, 0xa6, 0xbd, 0xfd, 0x3f,
  0x53, 0xf1, 0xae, 0x40, 0x00, 0x00, 0x00, 0x00, 0x00, 0x00, 0x00, 0x00,
  0x00, 0xd2, 0xa2, 0x40, 0xba, 0xff, 0xff, 0xff, 0x04, 0x00, 0x00, 0x00,
  0x08, 0x00, 0x00, 0x00, 0xa6, 0x0f, 0x4f, 0x40, 0xe3, 0x56, 0xd4, 0x3e,
  0xce, 0xff, 0xff, 0xff, 0x04, 0x00, 0x00, 0x00, 0x24, 0x00, 0x00, 0x00,
  0xce, 0x33, 0x62, 0x40, 0x36, 0xdd, 0x96, 0xbf, 0x48, 0x19, 0x0d, 0xbe,
  0xc8, 0x41, 0x88, 0xbf, 0xa9, 0x77, 0x8c, 0x3e, 0x4d, 0x81, 0x68, 0xbf,
  0x25, 0x86, 0x28, 0xc0, 0xa6, 0x2c, 0x12, 0xbc, 0x8a, 0xd3, 0xb6, 0xbe,
  0x00, 0x00, 0x06, 0x00, 0x08, 0x00, 0x04, 0x00, 0x06, 0x00, 0x00, 0x00,
  0x04, 0x00, 0x00, 0x00, 0x04, 0x00, 0x00, 0x00, 0x86, 0xd7, 0x23, 0x3e,
  0xb8, 0xf8, 0xff, 0xff, 0xbc, 0xf8, 0xff, 0xff, 0x0f, 0x00, 0x00, 0x00,
  0x4d, 0x4c, 0x49, 0x52, 0x20, 0x43, 0x6f, 0x6e, 0x76, 0x65, 0x72, 0x74,
  0x65, 0x64, 0x2e, 0x00, 0x01, 0x00, 0x00, 0x00, 0x14, 0x00, 0x00, 0x00,
  0x00, 0x00, 0x0e, 0x00, 0x18, 0x00, 0x14, 0x00, 0x10, 0x00, 0x0c, 0x00,
  0x08, 0x00, 0x04, 0x00, 0x0e, 0x00, 0x00, 0x00, 0x14, 0x00, 0x00, 0x00,
  0x1c, 0x00, 0x00, 0x00, 0x90, 0x01, 0x00, 0x00, 0x94, 0x01, 0x00, 0x00,
  0x98, 0x01, 0x00, 0x00, 0x04, 0x00, 0x00, 0x00, 0x6d, 0x61, 0x69, 0x6e,
  0x00, 0x00, 0x00, 0x00, 0x05, 0x00, 0x00, 0x00, 0x28, 0x01, 0x00, 0x00,
  0xc4, 0x00, 0x00, 0x00, 0x8c, 0x00, 0x00, 0x00, 0x3c, 0x00, 0x00, 0x00,
  0x04, 0x00, 0x00, 0x00, 0x5a, 0xff, 0xff, 0xff, 0x14, 0x00, 0x00, 0x00,
  0x00, 0x00, 0x00, 0x08, 0x10, 0x00, 0x00, 0x00, 0x14, 0x00, 0x00, 0x00,
  0x03, 0x00, 0x00, 0x00, 0x40, 0xf9, 0xff, 0xff, 0x01, 0x00, 0x00, 0x00,
  0x0c, 0x00, 0x00, 0x00, 0x03, 0x00, 0x00, 0x00, 0x0b, 0x00, 0x00, 0x00,
  0x07, 0x00, 0x00, 0x00, 0x03, 0x00, 0x00, 0x00, 0x8e, 0xff, 0xff, 0xff,
  0x1c, 0x00, 0x00, 0x00, 0x00, 0x00, 0x00, 0x08, 0x1c, 0x00, 0x00, 0x00,
  0x20, 0x00, 0x00, 0x00, 0x03, 0x00, 0x00, 0x00, 0x00, 0x00, 0x06, 0x00,
  0x08, 0x00, 0x07, 0x00, 0x06, 0x00, 0x00, 0x00, 0x00, 0x00, 0x00, 0x01,
  0x01, 0x00, 0x00, 0x00, 0x0b, 0x00, 0x00, 0x00, 0x03, 0x00, 0x00, 0x00,
  0x0a, 0x00, 0x00, 0x00, 0x06, 0x00, 0x00, 0x00, 0x04, 0x00, 0x00, 0x00,
  0x00, 0x00, 0x0a, 0x00, 0x10, 0x00, 0x0c, 0x00, 0x08, 0x00, 0x04, 0x00,
  0x0a, 0x00, 0x00, 0x00, 0x0c, 0x00, 0x00, 0x00, 0x10, 0x00, 0x00, 0x00,
  0x02, 0x00, 0x00, 0x00, 0x01, 0x00, 0x00, 0x00, 0x0a, 0x00, 0x00, 0x00,
  0x02, 0x00, 0x00, 0x00, 0x09, 0x00, 0x00, 0x00, 0x05, 0x00, 0x00, 0x00,
  0x00, 0x00, 0x0e, 0x00, 0x1a, 0x00, 0x14, 0x00, 0x10, 0x00, 0x0c, 0x00,
  0x0b, 0x00, 0x04, 0x00, 0x0e, 0x00, 0x00, 0x00, 0x24, 0x00, 0x00, 0x00,
  0x00, 0x00, 0x00, 0x05, 0x34, 0x00, 0x00, 0x00, 0x38, 0x00, 0x00, 0x00,
  0x01, 0x00, 0x00, 0x00, 0x00, 0x00, 0x0e, 0x00, 0x18, 0x00, 0x17, 0x00,
  0x10, 0x00, 0x0c, 0x00, 0x08, 0x00, 0x04, 0x00, 0x0e, 0x00, 0x00, 0x00,
  0x02, 0x00, 0x00, 0x00, 0x02, 0x00, 0x00, 0x00, 0x02, 0x00, 0x00, 0x00,
  0x02, 0x00, 0x00, 0x00, 0x00, 0x00, 0x00, 0x01, 0x01, 0x00, 0x00, 0x00,
  0x09, 0x00, 0x00, 0x00, 0x01, 0x00, 0x00, 0x00, 0x08, 0x00, 0x00, 0x00,
  0x00, 0x00, 0x0e, 0x00, 0x14, 0x00, 0x00, 0x00, 0x10, 0x00, 0x0c, 0x00,
  0x0b, 0x00, 0x04, 0x00, 0x0e, 0x00, 0x00, 0x00, 0x1c, 0x00, 0x00, 0x00,
  0x00, 0x00, 0x00, 0x01, 0x28, 0x00, 0x00, 0x00, 0x2c, 0x00, 0x00, 0x00,
  0x0c, 0x00, 0x14, 0x00, 0x13, 0x00, 0x0c, 0x00, 0x08, 0x00, 0x07, 0x00,
  0x0c, 0x00, 0x00, 0x00, 0x00, 0x00, 0x00, 0x01, 0x01, 0x00, 0x00, 0x00,
  0x01, 0x00, 0x00, 0x00, 0x00, 0x00, 0x00, 0x01, 0x01, 0x00, 0x00, 0x00,
  0x08, 0x00, 0x00, 0x00, 0x03, 0x00, 0x00, 0x00, 0x00, 0x00, 0x00, 0x00,
  0x02, 0x00, 0x00, 0x00, 0x01, 0x00, 0x00, 0x00, 0x01, 0x00, 0x00, 0x00,
  0x0c, 0x00, 0x00, 0x00, 0x01, 0x00, 0x00, 0x00, 0x00, 0x00, 0x00, 0x00,
  0x0d, 0x00, 0x00, 0x00, 0x34, 0x05, 0x00, 0x00, 0xc0, 0x04, 0x00, 0x00,
  0x50, 0x04, 0x00, 0x00, 0xf8, 0x03, 0x00, 0x00, 0xa0, 0x03, 0x00, 0x00,
  0x50, 0x03, 0x00, 0x00, 0xec, 0x02, 0x00, 0x00, 0xa0, 0x02, 0x00, 0x00,
  0xcc, 0x01, 0x00, 0x00, 0x54, 0x01, 0x00, 0x00, 0xf4, 0x00, 0x00, 0x00,
  0x60, 0x00, 0x00, 0x00, 0x04, 0x00, 0x00, 0x00, 0x16, 0xfb, 0xff, 0xff,
  0x00, 0x00, 0x00, 0x01, 0x14, 0x00, 0x00, 0x00, 0x1c, 0x00, 0x00, 0x00,
  0x1c, 0x00, 0x00, 0x00, 0x0d, 0x00, 0x00, 0x00, 0x34, 0x00, 0x00, 0x00,
  0x02, 0x00, 0x00, 0x00, 0xff, 0xff, 0xff, 0xff, 0x02, 0x00, 0x00, 0x00,
  0xf8, 0xfa, 0xff, 0xff, 0x19, 0x00, 0x00, 0x00, 0x53, 0x74, 0x61, 0x74,
  0x65, 0x66, 0x75, 0x6c, 0x50, 0x61, 0x72, 0x74, 0x69, 0x74, 0x69, 0x6f,
  0x6e, 0x65, 0x64, 0x43, 0x61, 0x6c, 0x6c, 0x3a, 0x30, 0x00, 0x00, 0x00,
  0x02, 0x00, 0x00, 0x00, 0x01, 0x00, 0x00, 0x00, 0x02, 0x00, 0x00, 0x00,
  0x6e, 0xfb, 0xff, 0xff, 0x00, 0x00, 0x00, 0x01, 0x14, 0x00, 0x00, 0x00,
  0x1c, 0x00, 0x00, 0x00, 0x1c, 0x00, 0x00, 0x00, 0x0c, 0x00, 0x00, 0x00,
  0x6c, 0x00, 0x00, 0x00, 0x02, 0x00, 0x00, 0x00, 0xff, 0xff, 0xff, 0xff,
  0x41, 0x00, 0x00, 0x00, 0x50, 0xfb, 0xff, 0xff, 0x52, 0x00, 0x00, 0x00,
  0x73, 0x65, 0x71, 0x75, 0x65, 0x6e, 0x74, 0x69, 0x61, 0x6c, 0x5f, 0x31,
  0x2f, 0x64, 0x65, 0x6e, 0x73, 0x65, 0x5f, 0x32, 0x2f, 0x4d, 0x61, 0x74,
  0x4d, 0x75, 0x6c, 0x3b, 0x73, 0x65, 0x71, 0x75, 0x65, 0x6e, 0x74, 0x69,
  0x61, 0x6c, 0x5f, 0x31, 0x2f, 0x64, 0x65, 0x6e, 0x73, 0x65, 0x5f, 0x32,
  0x2f, 0x52, 0x65, 0x6c, 0x75, 0x3b, 0x73, 0x65, 0x71, 0x75, 0x65, 0x6e,
  0x74, 0x69, 0x61, 0x6c, 0x5f, 0x31, 0x2f, 0x64, 0x65, 0x6e, 0x73, 0x65,
  0x5f, 0x32, 0x2f, 0x42, 0x69, 0x61, 0x73, 0x41, 0x64, 0x64, 0x00, 0x00,
  0x02, 0x00, 0x00, 0x00, 0x01, 0x00, 0x00, 0x00, 0x41, 0x00, 0x00, 0x00,
  0xfe, 0xfb, 0xff, 0xff, 0x00, 0x00, 0x00, 0x01, 0x14, 0x00, 0x00, 0x00,
  0x1c, 0x00, 0x00, 0x00, 0x1c, 0x00, 0x00, 0x00, 0x0b, 0x00, 0x00, 0x00,
  0x38, 0x00, 0x00, 0x00, 0x02, 0x00, 0x00, 0x00, 0xff, 0xff, 0xff, 0xff,
  0x0f, 0x00, 0x00, 0x00, 0xe0, 0xfb, 0xff, 0xff, 0x1e, 0x00, 0x00, 0x00,
  0x73, 0x65, 0x71, 0x75, 0x65, 0x6e, 0x74, 0x69, 0x61, 0x6c, 0x5f, 0x31,
  0x2f, 0x66, 0x6c, 0x61, 0x74, 0x74, 0x65, 0x6e, 0x5f, 0x31, 0x2f, 0x52,
  0x65, 0x73, 0x68, 0x61, 0x70, 0x65, 0x00, 0x00, 0x02, 0x00, 0x00, 0x00,
  0x01, 0x00, 0x00, 0x00, 0x0f, 0x00, 0x00, 0x00, 0x5a, 0xfc, 0xff, 0xff,
  0x00, 0x00, 0x00, 0x01, 0x14, 0x00, 0x00, 0x00, 0x24, 0x00, 0x00, 0x00,
  0x24, 0x00, 0x00, 0x00, 0x0a, 0x00, 0x00, 0x00, 0x48, 0x00, 0x00, 0x00,
  0x04, 0x00, 0x00, 0x00, 0xff, 0xff, 0xff, 0xff, 0x03, 0x00, 0x00, 0x00,
  0x05, 0x00, 0x00, 0x00, 0x01, 0x00, 0x00, 0x00, 0x44, 0xfc, 0xff, 0xff,
  0x24, 0x00, 0x00, 0x00, 0x73, 0x65, 0x71, 0x75, 0x65, 0x6e, 0x74, 0x69,
  0x61, 0x6c, 0x5f, 0x31, 0x2f, 0x6d, 0x61, 0x78, 0x5f, 0x70, 0x6f, 0x6f,
  0x6c, 0x69, 0x6e, 0x67, 0x32, 0x64, 0x5f, 0x31, 0x2f, 0x4d, 0x61, 0x78,
  0x50, 0x6f, 0x6f, 0x6c, 0x00, 0x00, 0x00, 0x00, 0x04, 0x00, 0x00, 0x00,
  0x01, 0x00, 0x00, 0x00, 0x03, 0x00, 0x00, 0x00, 0x05, 0x00, 0x00, 0x00,
  0x01, 0x00, 0x00, 0x00, 0xce, 0xfc, 0xff, 0xff, 0x00, 0x00, 0x00, 0x01,
  0x14, 0x00, 0x00, 0x00, 0x24, 0x00, 0x00, 0x00, 0x24, 0x00, 0x00, 0x00,
  0x09, 0x00, 0x00, 0x00, 0xa4, 0x00, 0x00, 0x00, 0x04, 0x00, 0x00, 0x00,
  0xff, 0xff, 0xff, 0xff, 0x07, 0x00, 0x00, 0x00, 0x0a, 0x00, 0x00, 0x00,
  0x01, 0x00, 0x00, 0x00, 0xb8, 0xfc, 0xff, 0xff, 0x82, 0x00, 0x00, 0x00,
  0x73, 0x65, 0x71, 0x75, 0x65, 0x6e, 0x74, 0x69, 0x61, 0x6c, 0x5f, 0x31,
  0x2f, 0x63, 0x6f, 0x6e, 0x76, 0x32, 0x64, 0x5f, 0x31, 0x2f, 0x52, 0x65,
  0x6c, 0x75, 0x3b, 0x73, 0x65, 0x71, 0x75, 0x65, 0x6e, 0x74, 0x69, 0x61,
  0x6c, 0x5f, 0x31, 0x2f, 0x63, 0x6f, 0x6e, 0x76, 0x32, 0x64, 0x5f, 0x31,
  0x2f, 0x42, 0x69, 0x61, 0x73, 0x41, 0x64, 0x64, 0x3b, 0x73, 0x65, 0x71,
  0x75, 0x65, 0x6e, 0x74, 0x69, 0x61, 0x6c, 0x5f, 0x31, 0x2f, 0x63, 0x6f,
  0x6e, 0x76, 0x32, 0x64, 0x5f, 0x31, 0x2f, 0x43, 0x6f, 0x6e, 0x76, 0x32,
  0x44, 0x3b, 0x73, 0x65, 0x71, 0x75, 0x65, 0x6e, 0x74, 0x69, 0x61, 0x6c,
  0x5f, 0x31, 0x2f, 0x63, 0x6f, 0x6e, 0x76, 0x32, 0x64, 0x5f, 0x31, 0x2f,
  0x42, 0x69, 0x61, 0x73, 0x41, 0x64, 0x64, 0x2f, 0x52, 0x65, 0x61, 0x64,
  0x56, 0x61, 0x72, 0x69, 0x61, 0x62, 0x6c, 0x65, 0x4f, 0x70, 0x00, 0x00,
  0x04, 0x00, 0x00, 0x00, 0x01, 0x00, 0x00, 0x00, 0x07, 0x00, 0x00, 0x00,
  0x0a, 0x00, 0x00, 0x00, 0x01, 0x00, 0x00, 0x00, 0x0e, 0xfe, 0xff, 0xff,
  0x00, 0x00, 0x00, 0x01, 0x10, 0x00, 0x00, 0x00, 0x10, 0x00, 0x00, 0x00,
  0x08, 0x00, 0x00, 0x00, 0x28, 0x00, 0x00, 0x00, 0x70, 0xfd, 0xff, 0xff,
  0x1b, 0x00, 0x00, 0x00, 0x73, 0x65, 0x71, 0x75, 0x65, 0x6e, 0x74, 0x69,
  0x61, 0x6c, 0x5f, 0x31, 0x2f, 0x64, 0x65, 0x6e, 0x73, 0x65, 0x5f, 0x33,
  0x2f, 0x4d, 0x61, 0x74, 0x4d, 0x75, 0x6c, 0x00, 0x02, 0x00, 0x00, 0x00,
  0x02, 0x00, 0x00, 0x00, 0x41, 0x00, 0x00, 0x00, 0x56, 0xfe, 0xff, 0xff,
  0x00, 0x00, 0x00, 0x01, 0x10, 0x00, 0x00, 0x00, 0x10, 0x00, 0x00, 0x00,
  0x07, 0x00, 0x00, 0x00, 0x28, 0x00, 0x00, 0x00, 0xb8, 0xfd, 0xff, 0xff,
  0x1b, 0x00, 0x00, 0x00, 0x73, 0x65, 0x71, 0x75, 0x65, 0x6e, 0x74, 0x69,
  0x61, 0x6c, 0x5f, 0x31, 0x2f, 0x64, 0x65, 0x6e, 0x73, 0x65, 0x5f, 0x32,
  0x2f, 0x4d, 0x61, 0x74, 0x4d, 0x75, 0x6c, 0x00, 0x02, 0x00, 0x00, 0x00,
  0x41, 0x00, 0x00, 0x00, 0x0f, 0x00, 0x00, 0x00, 0x00, 0x00, 0x16, 0x00,
  0x1c, 0x00, 0x18, 0x00, 0x17, 0x00, 0x10, 0x00, 0x0c, 0x00, 0x08, 0x00,
  0x00, 0x00, 0x00, 0x00, 0x00, 0x00, 0x07, 0x00, 0x16, 0x00, 0x00, 0x00,
  0x00, 0x00, 0x00, 0x01, 0x14, 0x00, 0x00, 0x00, 0x14, 0x00, 0x00, 0x00,
  0x06, 0x00, 0x00, 0x00, 0x00, 0x00, 0x00, 0x02, 0x2c, 0x00, 0x00, 0x00,
  0x1c, 0xfe, 0xff, 0xff, 0x1c, 0x00, 0x00, 0x00, 0x73, 0x65, 0x71, 0x75,
  0x65, 0x6e, 0x74, 0x69, 0x61, 0x6c, 0x5f, 0x31, 0x2f, 0x66, 0x6c, 0x61,
  0x74, 0x74, 0x65, 0x6e, 0x5f, 0x31, 0x2f, 0x43, 0x6f, 0x6e, 0x73, 0x74,
  0x00, 0x00, 0x00, 0x00, 0x01, 0x00, 0x00, 0x00, 0x02, 0x00, 0x00, 0x00,
  0x02, 0xff, 0xff, 0xff, 0x00, 0x00, 0x00, 0x01, 0x10, 0x00, 0x00, 0x00,
  0x10, 0x00, 0x00, 0x00, 0x05, 0x00, 0x00, 0x00, 0x38, 0x00, 0x00, 0x00,
  0x64, 0xfe, 0xff, 0xff, 0x2b, 0x00, 0x00, 0x00, 0x73, 0x65, 0x71, 0x75,
  0x65, 0x6e, 0x74, 0x69, 0x61, 0x6c, 0x5f, 0x31, 0x2f, 0x64, 0x65, 0x6e,
  0x73, 0x65, 0x5f, 0x32, 0x2f, 0x42, 0x69, 0x61, 0x73, 0x41, 0x64, 0x64,
  0x2f, 0x52, 0x65, 0x61, 0x64, 0x56, 0x61, 0x72, 0x69, 0x61, 0x62, 0x6c,
  0x65, 0x4f, 0x70, 0x00, 0x01, 0x00, 0x00, 0x00, 0x41, 0x00, 0x00, 0x00,
  0x56, 0xff, 0xff, 0xff, 0x00, 0x00, 0x00, 0x01, 0x10, 0x00, 0x00, 0x00,
  0x10, 0x00, 0x00, 0x00, 0x04, 0x00, 0x00, 0x00, 0x38, 0x00, 0x00, 0x00,
  0xb8, 0xfe, 0xff, 0xff, 0x2b, 0x00, 0x00, 0x00, 0x73, 0x65, 0x71, 0x75,
  0x65, 0x6e, 0x74, 0x69, 0x61, 0x6c, 0x5f, 0x31, 0x2f, 0x64, 0x65, 0x6e,
  0x73, 0x65, 0x5f, 0x33, 0x2f, 0x42, 0x69, 0x61, 0x73, 0x41, 0x64, 0x64,
  0x2f, 0x52, 0x65, 0x61, 0x64, 0x56, 0x61, 0x72, 0x69, 0x61, 0x62, 0x6c,
  0x65, 0x4f, 0x70, 0x00, 0x01, 0x00, 0x00, 0x00, 0x02, 0x00, 0x00, 0x00,
  0xaa, 0xff, 0xff, 0xff, 0x00, 0x00, 0x00, 0x01, 0x10, 0x00, 0x00, 0x00,
  0x10, 0x00, 0x00, 0x00, 0x03, 0x00, 0x00, 0x00, 0x2c, 0x00, 0x00, 0x00,
  0x0c, 0xff, 0xff, 0xff, 0x1c, 0x00, 0x00, 0x00, 0x73, 0x65, 0x71, 0x75,
  0x65, 0x6e, 0x74, 0x69, 0x61, 0x6c, 0x5f, 0x31, 0x2f, 0x63, 0x6f, 0x6e,
  0x76, 0x32, 0x64, 0x5f, 0x31, 0x2f, 0x43, 0x6f, 0x6e, 0x76, 0x32, 0x44,
  0x00, 0x00, 0x00, 0x00, 0x04, 0x00, 0x00, 0x00, 0x01, 0x00, 0x00, 0x00,
  0x03, 0x00, 0x00, 0x00, 0x03, 0x00, 0x00, 0x00, 0x01, 0x00, 0x00, 0x00,
  0x00, 0x00, 0x16, 0x00, 0x18, 0x00, 0x14, 0x00, 0x00, 0x00, 0x10, 0x00,
  0x0c, 0x00, 0x08, 0x00, 0x00, 0x00, 0x00, 0x00, 0x00, 0x00, 0x07, 0x00,
  0x16, 0x00, 0x00, 0x00, 0x00, 0x00, 0x00, 0x01, 0x10, 0x00, 0x00, 0x00,
  0x10, 0x00, 0x00, 0x00, 0x02, 0x00, 0x00, 0x00, 0x3c, 0x00, 0x00, 0x00,
  0x78, 0xff, 0xff, 0xff, 0x2c, 0x00, 0x00, 0x00, 0x73, 0x65, 0x71, 0x75,
  0x65, 0x6e, 0x74, 0x69, 0x61, 0x6c, 0x5f, 0x31, 0x2f, 0x63, 0x6f, 0x6e,
  0x76, 0x32, 0x64, 0x5f, 0x31, 0x2f, 0x42, 0x69, 0x61, 0x73, 0x41, 0x64,
  0x64, 0x2f, 0x52, 0x65, 0x61, 0x64, 0x56, 0x61, 0x72, 0x69, 0x61, 0x62,
  0x6c, 0x65, 0x4f, 0x70, 0x00, 0x00, 0x00, 0x00, 0x01, 0x00, 0x00, 0x00,
  0x01, 0x00, 0x00, 0x00, 0x00, 0x00, 0x16, 0x00, 0x1c, 0x00, 0x18, 0x00,
  0x00, 0x00, 0x14, 0x00, 0x10, 0x00, 0x0c, 0x00, 0x00, 0x00, 0x00, 0x00,
  0x08, 0x00, 0x07, 0x00, 0x16, 0x00, 0x00, 0x00, 0x00, 0x00, 0x00, 0x01,
  0x14, 0x00, 0x00, 0x00, 0x28, 0x00, 0x00, 0x00, 0x28, 0x00, 0x00, 0x00,
  0x01, 0x00, 0x00, 0x00, 0x48, 0x00, 0x00, 0x00, 0x04, 0x00, 0x00, 0x00,
  0xff, 0xff, 0xff, 0xff, 0x09, 0x00, 0x00, 0x00, 0x0c, 0x00, 0x00, 0x00,
  0x01, 0x00, 0x00, 0x00, 0x04, 0x00, 0x04, 0x00, 0x04, 0x00, 0x00, 0x00,
  0x20, 0x00, 0x00, 0x00, 0x73, 0x65, 0x72, 0x76, 0x69, 0x6e, 0x67, 0x5f,
  0x64, 0x65, 0x66, 0x61, 0x75, 0x6c, 0x74, 0x5f, 0x63, 0x6f, 0x6e, 0x76,
  0x32, 0x64, 0x5f, 0x31, 0x5f, 0x69, 0x6e, 0x70, 0x75, 0x74, 0x3a, 0x30,
  0x00, 0x00, 0x00, 0x00, 0x04, 0x00, 0x00, 0x00, 0x01, 0x00, 0x00, 0x00,
  0x09, 0x00, 0x00, 0x00, 0x0c, 0x00, 0x00, 0x00, 0x01, 0x00, 0x00, 0x00,
  0x04, 0x00, 0x00, 0x00, 0x40, 0x00, 0x00, 0x00, 0x24, 0x00, 0x00, 0x00,
  0x14, 0x00, 0x00, 0x00, 0x04, 0x00, 0x00, 0x00, 0xdc, 0xff, 0xff, 0xff,
  0x09, 0x00, 0x00, 0x00, 0x00, 0x00, 0x00, 0x09, 0xe8, 0xff, 0xff, 0xff,
  0x16, 0x00, 0x00, 0x00, 0x00, 0x00, 0x00, 0x16, 0xf4, 0xff, 0xff, 0xff,
  0x11, 0x00, 0x00, 0x00, 0x00, 0x00, 0x00, 0x11, 0x0c, 0x00, 0x0c, 0x00,
  0x0b, 0x00, 0x00, 0x00, 0x00, 0x00, 0x04, 0x00, 0x0c, 0x00, 0x00, 0x00,
  0x03, 0x00, 0x00, 0x00, 0x00, 0x00, 0x00, 0x03
};
unsigned int model_tflite_len = 7316;
