unsigned char model_tflite[] = {
  0x1c, 0x00, 0x00, 0x00, 0x54, 0x46, 0x4c, 0x33, 0x14, 0x00, 0x20, 0x00,
  0x1c, 0x00, 0x18, 0x00, 0x14, 0x00, 0x10, 0x00, 0x0c, 0x00, 0x00, 0x00,
  0x08, 0x00, 0x04, 0x00, 0x14, 0x00, 0x00, 0x00, 0x1c, 0x00, 0x00, 0x00,
  0x88, 0x00, 0x00, 0x00, 0xe0, 0x00, 0x00, 0x00, 0x94, 0x14, 0x00, 0x00,
  0xa4, 0x14, 0x00, 0x00, 0xd4, 0x1b, 0x00, 0x00, 0x03, 0x00, 0x00, 0x00,
  0x01, 0x00, 0x00, 0x00, 0x04, 0x00, 0x00, 0x00, 0xa6, 0xea, 0xff, 0xff,
  0x0c, 0x00, 0x00, 0x00, 0x1c, 0x00, 0x00, 0x00, 0x38, 0x00, 0x00, 0x00,
  0x0f, 0x00, 0x00, 0x00, 0x73, 0x65, 0x72, 0x76, 0x69, 0x6e, 0x67, 0x5f,
  0x64, 0x65, 0x66, 0x61, 0x75, 0x6c, 0x74, 0x00, 0x01, 0x00, 0x00, 0x00,
  0x04, 0x00, 0x00, 0x00, 0x94, 0xff, 0xff, 0xff, 0x0c, 0x00, 0x00, 0x00,
  0x04, 0x00, 0x00, 0x00, 0x07, 0x00, 0x00, 0x00, 0x64, 0x65, 0x6e, 0x73,
  0x65, 0x5f, 0x31, 0x00, 0x01, 0x00, 0x00, 0x00, 0x04, 0x00, 0x00, 0x00,
  0xee, 0xeb, 0xff, 0xff, 0x04, 0x00, 0x00, 0x00, 0x0c, 0x00, 0x00, 0x00,
  0x63, 0x6f, 0x6e, 0x76, 0x32, 0x64, 0x5f, 0x69, 0x6e, 0x70, 0x75, 0x74,
  0x00, 0x00, 0x00, 0x00, 0x02, 0x00, 0x00, 0x00, 0x34, 0x00, 0x00, 0x00,
  0x04, 0x00, 0x00, 0x00, 0xdc, 0xff, 0xff, 0xff, 0x0f, 0x00, 0x00, 0x00,
  0x04, 0x00, 0x00, 0x00, 0x13, 0x00, 0x00, 0x00, 0x43, 0x4f, 0x4e, 0x56,
  0x45, 0x52, 0x53, 0x49, 0x4f, 0x4e, 0x5f, 0x4d, 0x45, 0x54, 0x41, 0x44,
  0x41, 0x54, 0x41, 0x00, 0x08, 0x00, 0x0c, 0x00, 0x08, 0x00, 0x04, 0x00,
  0x08, 0x00, 0x00, 0x00, 0x0e, 0x00, 0x00, 0x00, 0x04, 0x00, 0x00, 0x00,
  0x13, 0x00, 0x00, 0x00, 0x6d, 0x69, 0x6e, 0x5f, 0x72, 0x75, 0x6e, 0x74,
  0x69, 0x6d, 0x65, 0x5f, 0x76, 0x65, 0x72, 0x73, 0x69, 0x6f, 0x6e, 0x00,
  0x10, 0x00, 0x00, 0x00, 0xb0, 0x13, 0x00, 0x00, 0xa8, 0x13, 0x00, 0x00,
  0x94, 0x13, 0x00, 0x00, 0x58, 0x13, 0x00, 0x00, 0x44, 0x12, 0x00, 0x00,
  0x2c, 0x12, 0x00, 0x00, 0x14, 0x12, 0x00, 0x00, 0xc8, 0x02, 0x00, 0x00,
  0xb0, 0x00, 0x00, 0x00, 0xa8, 0x00, 0x00, 0x00, 0xa0, 0x00, 0x00, 0x00,
  0x98, 0x00, 0x00, 0x00, 0x90, 0x00, 0x00, 0x00, 0x88, 0x00, 0x00, 0x00,
  0x68, 0x00, 0x00, 0x00, 0x04, 0x00, 0x00, 0x00, 0xaa, 0xec, 0xff, 0xff,
  0x04, 0x00, 0x00, 0x00, 0x54, 0x00, 0x00, 0x00, 0x0c, 0x00, 0x00, 0x00,
  0x08, 0x00, 0x0e, 0x00, 0x08, 0x00, 0x04, 0x00, 0x08, 0x00, 0x00, 0x00,
  0x10, 0x00, 0x00, 0x00, 0x24, 0x00, 0x00, 0x00, 0x00, 0x00, 0x06, 0x00,
  0x08, 0x00, 0x04, 0x00, 0x06, 0x00, 0x00, 0x00, 0x04, 0x00, 0x00, 0x00,
  0x00, 0x00, 0x00, 0x00, 0x00, 0x00, 0x0a, 0x00, 0x10, 0x00, 0x0c, 0x00,
  0x08, 0x00, 0x04, 0x00, 0x0a, 0x00, 0x00, 0x00, 0x02, 0x00, 0x00, 0x00,
  0x02, 0x00, 0x00, 0x00, 0x04, 0x00, 0x00, 0x00, 0x06, 0x00, 0x00, 0x00,
  0x32, 0x2e, 0x31, 0x34, 0x2e, 0x30, 0x00, 0x00, 0x0a, 0xed, 0xff, 0xff,
  0x04, 0x00, 0x00, 0x00, 0x10, 0x00, 0x00, 0x00, 0x31, 0x2e, 0x35, 0x2e,
  0x30, 0x00, 0x00, 0x00, 0x00, 0x00, 0x00, 0x00, 0x00, 0x00, 0x00, 0x00,
  0x00, 0xe6, 0xff, 0xff, 0x04, 0xe6, 0xff, 0xff, 0x08, 0xe6, 0xff, 0xff,
  0x0c, 0xe6, 0xff, 0xff, 0x10, 0xe6, 0xff, 0xff, 0x3a, 0xed, 0xff, 0xff,
  0x04, 0x00, 0x00, 0x00, 0x08, 0x02, 0x00, 0x00, 0xfa, 0x88, 0xda, 0xbd,
  0xf0, 0x03, 0x6d, 0xbe, 0xa3, 0x29, 0x7f, 0x40, 0xd6, 0xea, 0x1a, 0x40,
  0xd8, 0x2d, 0x5d, 0x40, 0xd9, 0x44, 0x09, 0xc0, 0x8c, 0x7f, 0x15, 0x40,
  0x8e, 0xf2, 0x7c, 0xbf, 0xca, 0x34, 0x28, 0x3d, 0x32, 0x16, 0xe9, 0x3f,
  0x62, 0xc9, 0x52, 0xbf, 0xef, 0x31, 0x76, 0x3e, 0x65, 0xb8, 0x3b, 0x40,
  0xa1, 0x1d, 0x80, 0xc0, 0xf9, 0xd3, 0x6a, 0xc0, 0xe3, 0xb2, 0xe5, 0xbf,
  0x55, 0xc4, 0x8c, 0xc0, 0x8d, 0x7f, 0xa4, 0x3e, 0x89, 0x92, 0xb8, 0xbf,
  0xd7, 0x9b, 0x74, 0x40, 0xfe, 0x32, 0x44, 0x3f, 0xf0, 0xde, 0xcd, 0xbf,
  0x6d, 0x2a, 0xcf, 0xbf, 0x05, 0xfd, 0x4c, 0xbe, 0x7f, 0x85, 0xcd, 0x3e,
  0x00, 0x8b, 0x91, 0x3d, 0x82, 0x9d, 0x93, 0xbf, 0x28, 0xb5, 0x89, 0x40,
  0x77, 0x10, 0x35, 0xbe, 0x84, 0xf8, 0x29, 0x40, 0xe9, 0x39, 0xb1, 0x40,
  0xf4, 0xae, 0xdf, 0xbf, 0x07, 0x3c, 0xd0, 0x3f, 0x43, 0xb5, 0x60, 0x40,
  0xf3, 0x29, 0xf9, 0x3d, 0x84, 0x12, 0x17, 0x3f, 0xa1, 0x4a, 0x94, 0x3f,
  0x78, 0x84, 0x18, 0xc0, 0x76, 0x8b, 0xbd, 0xc0, 0xd6, 0xef, 0x92, 0x40,
  0xc3, 0xc1, 0x35, 0xbe, 0xac, 0x8f, 0x5c, 0xc0, 0xc2, 0xc9, 0x1f, 0x40,
  0x44, 0x25, 0x13, 0xc0, 0xd4, 0x7e, 0x12, 0xc1, 0x2a, 0xa2, 0xa8, 0xbf,
  0x98, 0xec, 0xff, 0x3f, 0x86, 0xa2, 0x1f, 0x3e, 0x09, 0xf2, 0x1d, 0xbf,
  0x33, 0x39, 0x79, 0x3f, 0x9d, 0xc8, 0xf2, 0xbf, 0x44, 0xa8, 0x11, 0x40,
  0xaa, 0xaf, 0xcb, 0x3f, 0xa4, 0x44, 0x8b, 0xbe, 0x5a, 0x59, 0x1d, 0x3f,
  0xb8, 0x22, 0x66, 0x3e, 0xbc, 0x5a, 0x83, 0x3d, 0x49, 0x4e, 0xb7, 0xbd,
  0x1e, 0x30, 0x4d, 0x40, 0x32, 0x17, 0x90, 0x3f, 0x02, 0x94, 0x81, 0x3e,
  0x2e, 0x3c, 0x4a, 0xc0, 0x1d, 0xcb, 0x77, 0x3f, 0x2e, 0xc5, 0xc3, 0x3f,
  0x54, 0x4a, 0xd0, 0xbf, 0x2a, 0x7d, 0x93, 0x3e, 0x51, 0x36, 0x65, 0xbe,
  0x5c, 0xa2, 0x7e, 0xc0, 0xef, 0x72, 0x1f, 0xc0, 0xda, 0x94, 0x5c, 0xc0,
  0xf1, 0x2e, 0x17, 0x40, 0x79, 0x92, 0x17, 0xc0, 0xb9, 0x50, 0x82, 0x3f,
  0x9c, 0x5d, 0x6d, 0xbd, 0x3a, 0xa2, 0xeb, 0xbf, 0x8b, 0x77, 0x3c, 0x3f,
  0xc7, 0x48, 0xc9, 0xbe, 0x5b, 0x3a, 0x4a, 0xc0, 0x0d, 0x5d, 0x7f, 0x40,
  0x7f, 0x50, 0x65, 0x40, 0x37, 0xed, 0xea, 0x3f, 0x1d, 0x70, 0x64, 0x40,
  0xd4, 0xfe, 0xb9, 0xbe, 0xce, 0x87, 0xab, 0x3f, 0xa2, 0xcd, 0x61, 0xc0,
  0x67, 0x9a, 0x56, 0xbf, 0x0d, 0xa7, 0xe6, 0x3f, 0xd6, 0xf0, 0xd2, 0x3f,
  0xef, 0x5a, 0xb2, 0xbc, 0xd0, 0x90, 0x9c, 0xbe, 0x18, 0x8e, 0x8d, 0x3d,
  0xd3, 0xec, 0x95, 0x3f, 0xc0, 0x37, 0x9d, 0xc0, 0xa3, 0x57, 0x94, 0x3d,
  0xcd, 0x5e, 0x23, 0xc0, 0x11, 0x30, 0xb2, 0xc0, 0x27, 0x82, 0xdb, 0x3f,
  0x93, 0xc5, 0xdb, 0x3f, 0xb8, 0xa9, 0x53, 0xc0, 0x89, 0x6a, 0x11, 0x3f,
  0x04, 0xc7, 0x0f, 0x3f, 0x87, 0xcc, 0x84, 0x3f, 0x7f, 0xf6, 0x11, 0x40,
  0xce, 0x0f, 0xbc, 0x40, 0x60, 0xeb, 0x88, 0xc0, 0x7a, 0xec, 0x5b, 0xbe,
  0x75, 0x22, 0x57, 0x40, 0xc4, 0xa0, 0x38, 0x40, 0xf6, 0xe9, 0x15, 0x40,
  0xb8, 0xfb, 0x12, 0x41, 0x33, 0x9d, 0xd6, 0x3f, 0xd5, 0x0d, 0x01, 0xc0,
  0x48, 0xf2, 0x68, 0xbe, 0x49, 0xc7, 0x22, 0x3f, 0x1e, 0x74, 0x6d, 0xbf,
  0xce, 0x17, 0xbe, 0x3f, 0xfa, 0x45, 0x14, 0xc0, 0xfe, 0xb3, 0xb9, 0xbf,
  0xef, 0xf2, 0xa8, 0x3e, 0x76, 0x5f, 0x13, 0x3f, 0x6c, 0x2c, 0x82, 0x3e,
  0xa0, 0x1e, 0x97, 0xbe, 0x5c, 0xb1, 0x8a, 0x3e, 0xe7, 0x9b, 0x50, 0xc0,
  0xb0, 0x92, 0x91, 0xbf, 0xf6, 0x65, 0x4a, 0xbe, 0xed, 0xc2, 0x51, 0x40,
  0xd4, 0xde, 0x62, 0x3f, 0xbd, 0xd8, 0xce, 0xbf, 0x63, 0xc6, 0xc9, 0x3f,
  0x4e, 0xef, 0xff, 0xff, 0x04, 0x00, 0x00, 0x00, 0x3c, 0x0f, 0x00, 0x00,
  0x80, 0x63, 0xa0, 0x3b, 0x80, 0x4c, 0xe0, 0xbc, 0x28, 0x4c, 0x0e, 0xbe,
  0x16, 0xd6, 0xec, 0xbd, 0xe4, 0xa8, 0x27, 0x3e, 0xbc, 0x5a, 0x8d, 0x3d,
  0x2c, 0x16, 0x2b, 0xbe, 0x80, 0x99, 0x77, 0xbc, 0x78, 0x75, 0x63, 0x3d,
  0xbf, 0xb5, 0x66, 0xbe, 0xbe, 0x6e, 0x1b, 0xbe, 0x34, 0x4d, 0x5e, 0xbd,
  0x5a, 0xe6, 0xf3, 0xbd, 0xd4, 0xea, 0x93, 0x3d, 0x2a, 0xf1, 0xd7, 0xbd,
  0x32, 0x2f, 0x44, 0x3e, 0x62, 0x67, 0x98, 0xbe, 0x8a, 0x41, 0x5c, 0xbe,
  0x88, 0xd7, 0x9c, 0x3d, 0xa3, 0x4b, 0x8d, 0xbe, 0xca, 0xb4, 0x92, 0xbd,
  0x91, 0x24, 0x7f, 0xbe, 0x8b, 0xb2, 0x0b, 0x3e, 0x97, 0x1e, 0x80, 0xbc,
  0x69, 0x22, 0x38, 0xbe, 0x00, 0xba, 0xad, 0xbd, 0xd6, 0xc4, 0x5e, 0x3d,
  0x4e, 0xf6, 0xae, 0xbd, 0x0b, 0xa6, 0x16, 0x3e, 0xf0, 0x6c, 0xd2, 0x3d,
  0xb1, 0xc7, 0xb2, 0x3e, 0x5f, 0x1a, 0x7b, 0x3c, 0xab, 0x0d, 0x99, 0xbe,
  0x56, 0xd6, 0xde, 0xbe, 0xf2, 0x93, 0xfa, 0xbd, 0xde, 0xd9, 0x16, 0x40,
  0x94, 0x43, 0x8b, 0xbf, 0x15, 0x8e, 0xb1, 0xbe, 0xc6, 0x22, 0x09, 0x3d,
  0x78, 0x64, 0x4a, 0xbe, 0xfb, 0xe8, 0xa7, 0x3f, 0xdd, 0xa1, 0x3f, 0x3e,
  0xf3, 0x0e, 0x3a, 0xbf, 0x4e, 0x38, 0xba, 0x3e, 0x40, 0xa0, 0xa3, 0xbd,
  0x7c, 0xf0, 0x8e, 0xbf, 0x8d, 0xd8, 0x3c, 0xbf, 0x09, 0x45, 0x20, 0x3e,
  0x6f, 0xcf, 0x18, 0x3f, 0xb3, 0x4d, 0xba, 0x3e, 0x27, 0xfb, 0xfb, 0xbf,
  0x09, 0x71, 0x94, 0x3f, 0xf3, 0x74, 0x8f, 0x3f, 0x25, 0x55, 0xa3, 0x3f,
  0x26, 0xfa, 0x04, 0x3f, 0xbb, 0x3c, 0x0a, 0xc0, 0xa3, 0x8d, 0x33, 0xbf,
  0x21, 0x35, 0x03, 0xbe, 0x65, 0x6d, 0x49, 0xbe, 0xda, 0x2a, 0x27, 0xbf,
  0x03, 0xca, 0x13, 0x3f, 0x72, 0x19, 0xa0, 0x3e, 0x96, 0x6e, 0xb5, 0xbe,
  0xa4, 0xcc, 0x97, 0xbf, 0x98, 0x3f, 0x35, 0xbe, 0x9e, 0x16, 0x18, 0x40,
  0x0e, 0x55, 0x8e, 0xbf, 0xda, 0xcf, 0xba, 0xbf, 0x2a, 0xd9, 0xf6, 0xbf,
  0xc4, 0x6a, 0x83, 0xbf, 0xe0, 0x30, 0x2f, 0x3f, 0x40, 0xda, 0x7a, 0x3f,
  0xb3, 0x57, 0xbf, 0x3e, 0xa2, 0xe6, 0x40, 0x3e, 0xfe, 0x5c, 0x4d, 0x3f,
  0x0d, 0x60, 0x94, 0xbe, 0xc1, 0xaa, 0x1c, 0xbd, 0xe7, 0x69, 0x30, 0xbe,
  0xbc, 0xa6, 0xe6, 0xbe, 0x41, 0x0e, 0x10, 0xbe, 0x46, 0x62, 0x0d, 0x3f,
  0x74, 0xb8, 0x02, 0xbf, 0xd6, 0xe3, 0xc7, 0xbe, 0x2b, 0x20, 0x71, 0xbe,
  0xfa, 0x34, 0xdc, 0xbe, 0xd8, 0xb4, 0x23, 0x3f, 0x7b, 0x2a, 0xe3, 0x3d,
  0x2d, 0xb9, 0xf8, 0x3c, 0x6f, 0xb4, 0x8c, 0x3d, 0xac, 0x7b, 0x4e, 0x3d,
  0x6b, 0x52, 0xb3, 0x3e, 0x9b, 0x6b, 0xc5, 0x3d, 0x9a, 0xa2, 0x46, 0xbe,
  0x1b, 0x98, 0x68, 0x3f, 0xae, 0xbb, 0x9f, 0x3e, 0x16, 0x5c, 0x37, 0xbf,
  0x64, 0x70, 0x2b, 0x3e, 0xa8, 0x84, 0x80, 0x3f, 0xbb, 0x1f, 0x30, 0x3f,
  0x19, 0x35, 0x2b, 0x3d, 0xb8, 0x7c, 0xdc, 0xbf, 0xbf, 0x44, 0x1b, 0xbf,
  0x51, 0x38, 0x1f, 0x3f, 0x42, 0x49, 0x00, 0xbf, 0xe2, 0xc4, 0x17, 0xbf,
  0xb1, 0xe2, 0x86, 0xbf, 0x5d, 0x6b, 0xde, 0x3e, 0x04, 0xe0, 0xf2, 0x3e,
  0xe7, 0xc4, 0x8b, 0xbe, 0x62, 0x73, 0x13, 0xbf, 0xd0, 0xf6, 0x5d, 0xbf,
  0x9a, 0x8b, 0x1b, 0xc0, 0x35, 0x46, 0x0a, 0xbf, 0x25, 0xd0, 0x3a, 0xbe,
  0x3b, 0x78, 0x1d, 0xbf, 0xda, 0x76, 0xfe, 0x3f, 0xac, 0xf0, 0x35, 0xbf,
  0x5a, 0xdd, 0x4b, 0x3f, 0x4b, 0x6b, 0xe1, 0xbe, 0x0c, 0xb2, 0x5a, 0x3e,
  0xc6, 0x54, 0x29, 0x3e, 0xcc, 0xe2, 0x49, 0xbe, 0xb3, 0x97, 0x82, 0xbe,
  0x4e, 0xbd, 0x92, 0x3d, 0xda, 0x18, 0xce, 0xbd, 0xf6, 0x4e, 0xa9, 0x3d,
  0xee, 0x85, 0x3e, 0x3e, 0x99, 0xc1, 0xc1, 0x3c, 0xe9, 0xe9, 0x58, 0xbe,
  0xc6, 0x36, 0xd0, 0xbd, 0x89, 0x69, 0xbd, 0x3d, 0x30, 0x4d, 0xbb, 0xbd,
  0x39, 0xfc, 0x88, 0x3e, 0x86, 0x92, 0x5e, 0xbe, 0x67, 0xcf, 0x88, 0xbe,
  0xc7, 0x22, 0x11, 0xbf, 0x66, 0xf2, 0x9b, 0xbe, 0x80, 0xde, 0x2c, 0x3c,
  0x77, 0xb6, 0xfe, 0xbd, 0x94, 0xf1, 0x34, 0x3e, 0x3f, 0x87, 0xbe, 0xbc,
  0xe0, 0xc1, 0x9e, 0x3e, 0xf0, 0xa2, 0x48, 0xbe, 0x90, 0xfa, 0xe5, 0xbd,
  0xcc, 0x1a, 0xa0, 0xbd, 0x44, 0x82, 0x8b, 0xbd, 0xd0, 0x04, 0x28, 0x3f,
  0x24, 0xe4, 0x4c, 0xbe, 0xb5, 0xdb, 0x51, 0x3e, 0xc7, 0x83, 0x90, 0x3e,
  0xf4, 0x90, 0x1b, 0xbf, 0x08, 0x3a, 0x19, 0xbf, 0x02, 0x7f, 0xae, 0xbe,
  0xbb, 0x86, 0x9e, 0x3d, 0xfe, 0x82, 0xb3, 0xbe, 0xe7, 0xca, 0x49, 0x3f,
  0xa5, 0x0d, 0x82, 0xbe, 0xb9, 0xfa, 0x09, 0x3f, 0xe4, 0x10, 0x00, 0x3f,
  0xb7, 0x66, 0x54, 0x3c, 0x88, 0x7a, 0xa4, 0xbd, 0x58, 0x32, 0x95, 0xbe,
  0xeb, 0xf7, 0xe7, 0x3e, 0x2c, 0xbe, 0xaa, 0x3e, 0xc0, 0xb7, 0x74, 0xbe,
  0xe6, 0x29, 0x89, 0xbd, 0x95, 0xf6, 0x88, 0x3e, 0xcd, 0x2e, 0x07, 0x3e,
  0xc5, 0x29, 0x82, 0x3e, 0x7f, 0xa2, 0x37, 0x3e, 0x92, 0xe3, 0xf9, 0xbe,
  0x59, 0xa6, 0xae, 0xbe, 0x44, 0x6a, 0x4a, 0xbe, 0x91, 0x11, 0x8d, 0xbd,
  0xef, 0xd2, 0x90, 0xbe, 0x25, 0xc7, 0xad, 0xbe, 0x1c, 0xd7, 0xa1, 0x3d,
  0x3c, 0xf2, 0xca, 0x3d, 0xc5, 0x1a, 0x3b, 0xbe, 0xfe, 0x29, 0x06, 0xbe,
  0xef, 0x4c, 0x89, 0x3f, 0xf7, 0x91, 0xc7, 0x3f, 0xa9, 0x87, 0x01, 0xbd,
  0xb4, 0x6b, 0x41, 0xbf, 0xa0, 0xfb, 0xa3, 0xbe, 0xde, 0xef, 0xfe, 0xbf,
  0x65, 0x9d, 0xaa, 0x3d, 0x3f, 0x3c, 0x70, 0xbf, 0xd5, 0xa1, 0xfa, 0xbf,
  0x06, 0x42, 0x3c, 0xbf, 0x77, 0x78, 0xab, 0x3f, 0xc6, 0x79, 0x7f, 0x3f,
  0x4a, 0xeb, 0x1d, 0x3f, 0xca, 0x5b, 0x41, 0x3d, 0xbe, 0x6e, 0x6d, 0x3e,
  0x8b, 0x70, 0x92, 0x3f, 0x12, 0x60, 0x75, 0x3f, 0x89, 0x2b, 0x5d, 0xbd,
  0x14, 0x59, 0xb6, 0x3e, 0xc8, 0x9e, 0xe2, 0x3d, 0x2f, 0x69, 0x25, 0xc0,
  0x39, 0x8a, 0xef, 0x3e, 0x3a, 0x5a, 0x0a, 0xbf, 0xad, 0xe4, 0xfa, 0xbe,
  0x5f, 0xba, 0x47, 0x3e, 0xe8, 0xc4, 0xde, 0xbf, 0xf3, 0xbd, 0xa7, 0xbe,
  0x27, 0xd6, 0x09, 0xbd, 0x75, 0x2c, 0xdc, 0xbe, 0x53, 0x11, 0xfa, 0xbe,
  0x80, 0x67, 0xd2, 0xbe, 0x4c, 0x28, 0x35, 0xbe, 0xb0, 0xc8, 0x43, 0xbe,
  0x03, 0xd6, 0x25, 0xbf, 0xc4, 0x44, 0xfb, 0x3d, 0xea, 0x5a, 0x2b, 0x3f,
  0x4c, 0x1c, 0x8a, 0x3b, 0xea, 0x40, 0x3e, 0xbf, 0xe1, 0x75, 0x73, 0xbf,
  0x95, 0xd5, 0x96, 0xbe, 0x32, 0xf4, 0x10, 0x3f, 0xe5, 0x44, 0xd6, 0x3e,
  0xba, 0xa6, 0xab, 0x3e, 0xe2, 0xa2, 0xd5, 0x3e, 0xf3, 0x5b, 0xa1, 0x3d,
  0xb3, 0xd6, 0x48, 0x3f, 0x88, 0x21, 0x71, 0x3f, 0x00, 0xa6, 0x9f, 0x3e,
  0x7a, 0x10, 0x6d, 0x3e, 0x80, 0x43, 0x8e, 0x3d, 0x2b, 0x36, 0x49, 0xc0,
  0xf3, 0xdc, 0xeb, 0xbe, 0x7c, 0xf4, 0x07, 0x3f, 0x6c, 0x66, 0x05, 0xbf,
  0xde, 0xcf, 0xb3, 0x3c, 0x66, 0x30, 0x31, 0xbf, 0xa2, 0x46, 0x63, 0xbe,
  0x49, 0x1f, 0x73, 0x3c, 0x0c, 0x52, 0x89, 0xbe, 0x49, 0xfc, 0x04, 0xbf,
  0x0e, 0xa1, 0x05, 0xbe, 0x67, 0xeb, 0xd5, 0xbe, 0x52, 0xb2, 0xe6, 0xbd,
  0x7f, 0x9f, 0x87, 0xbd, 0xab, 0xd4, 0x7f, 0x3c, 0x14, 0x81, 0xd0, 0x3f,
  0x86, 0x30, 0x01, 0xbf, 0xf4, 0x2c, 0x4f, 0xbc, 0xa3, 0x7c, 0xb7, 0x3e,
  0x91, 0x87, 0x31, 0xbd, 0x02, 0xa9, 0x1a, 0x3f, 0x96, 0xa3, 0x4c, 0xbe,
  0xd5, 0xbd, 0xd2, 0xbd, 0x2c, 0x5a, 0x1e, 0x3e, 0x6c, 0x1d, 0x86, 0xbd,
  0xa7, 0x2d, 0x72, 0x3c, 0x07, 0x1d, 0xea, 0x3d, 0x5c, 0x7f, 0xf4, 0x3c,
  0x9f, 0x75, 0xfb, 0x3d, 0x56, 0x1d, 0xa1, 0x3d, 0x24, 0xdf, 0x05, 0xbe,
  0xed, 0xdc, 0x4e, 0x3e, 0xca, 0x1d, 0x92, 0x3d, 0xfd, 0x2b, 0x42, 0xbf,
  0xb1, 0x9e, 0x4f, 0x3e, 0x16, 0x51, 0x85, 0xbe, 0xb6, 0x57, 0x93, 0xbe,
  0x71, 0xbc, 0x41, 0xbe, 0xdc, 0x6c, 0x22, 0xbd, 0x2e, 0x1d, 0x28, 0x3d,
  0xae, 0x64, 0x80, 0x3e, 0xdb, 0xd5, 0x6c, 0xbe, 0x48, 0x60, 0xd2, 0x3d,
  0xc4, 0x52, 0x1d, 0xbf, 0xa2, 0x7a, 0x58, 0x3e, 0x93, 0xce, 0x38, 0x3f,
  0x7d, 0x30, 0x0d, 0xbe, 0xbc, 0x83, 0xbb, 0xbe, 0xba, 0xde, 0xf8, 0xbe,
  0x4e, 0xe3, 0x71, 0xbe, 0x19, 0xaf, 0xbd, 0x3e, 0x68, 0xd5, 0xa1, 0x3d,
  0x3e, 0xfa, 0xc7, 0xbd, 0xd1, 0xb1, 0xd8, 0xbd, 0xda, 0x69, 0x0e, 0xbe,
  0x7a, 0xc4, 0x31, 0xbd, 0x27, 0x58, 0xe8, 0x3e, 0x87, 0x80, 0x9a, 0xba,
  0x23, 0x89, 0x11, 0x3f, 0xba, 0xa3, 0x03, 0x3f, 0x1a, 0x56, 0x5e, 0xc0,
  0x61, 0x74, 0xb1, 0x3f, 0x5e, 0x1a, 0x0d, 0x3f, 0x95, 0x85, 0xc2, 0x3e,
  0x82, 0x6c, 0xaf, 0x3e, 0x6f, 0x55, 0x0f, 0xc0, 0xd7, 0x1d, 0x8f, 0xbe,
  0x49, 0x9b, 0xab, 0xbe, 0x59, 0xfb, 0xbc, 0xbe, 0x10, 0x27, 0x88, 0xbe,
  0x43, 0x56, 0x2f, 0x3f, 0x8e, 0xce, 0x09, 0x3f, 0x11, 0xba, 0x33, 0xbf,
  0x4b, 0xc8, 0xaa, 0x3d, 0x9d, 0x5e, 0x2d, 0xbf, 0xe6, 0x73, 0xc3, 0x3f,
  0x45, 0x07, 0x13, 0xbf, 0x32, 0xa4, 0x41, 0xbe, 0xa2, 0x5f, 0xea, 0x3e,
  0x76, 0x14, 0x99, 0xbe, 0xca, 0xd6, 0x3f, 0x3e, 0x1a, 0x3f, 0x57, 0xbe,
  0xcb, 0x3f, 0x7c, 0xbf, 0x48, 0x14, 0x10, 0xbf, 0x43, 0x33, 0xba, 0xbe,
  0xd6, 0x17, 0x9d, 0x3f, 0x1b, 0xe6, 0xd9, 0x3f, 0x9b, 0xf0, 0x4e, 0x3e,
  0x6e, 0x66, 0x28, 0xbf, 0xd1, 0xd5, 0xbd, 0xbd, 0xa9, 0x48, 0x99, 0xbf,
  0xf5, 0xdf, 0xf3, 0xbe, 0x0f, 0x37, 0xc2, 0xbf, 0x6f, 0xbe, 0x1f, 0xc0,
  0xa3, 0x80, 0x50, 0xbf, 0x1a, 0x25, 0xb2, 0x3f, 0xc0, 0xf5, 0xbe, 0x3f,
  0xc3, 0x32, 0x07, 0x3f, 0x1d, 0xf2, 0xf2, 0xbd, 0xa9, 0x3b, 0x0b, 0x3f,
  0x89, 0xa6, 0x56, 0xbe, 0x84, 0x5b, 0x01, 0xbe, 0x8f, 0x6c, 0x3a, 0x3e,
  0x3c, 0x85, 0x8a, 0x3e, 0x03, 0x0f, 0x4b, 0x3e, 0xb6, 0x15, 0xad, 0xbf,
  0xb4, 0x80, 0xbe, 0x3c, 0x7a, 0xa3, 0x3f, 0xbf, 0xf9, 0x97, 0x8c, 0x3e,
  0x5d, 0x55, 0x94, 0x3e, 0xce, 0x3a, 0xb6, 0xbf, 0xa4, 0xfc, 0x8e, 0xbd,
  0xbe, 0xac, 0x14, 0xbf, 0x51, 0x69, 0xdc, 0xbe, 0xdb, 0x91, 0x3c, 0x3d,
  0x30, 0x2f, 0xbf, 0x39, 0x42, 0x1d, 0x58, 0xbe, 0x1e, 0xa0, 0x7e, 0xbe,
  0x5f, 0x45, 0xee, 0x3d, 0xdc, 0x55, 0xce, 0x3d, 0xcc, 0xcf, 0x16, 0xbe,
  0xfa, 0x43, 0x93, 0xbe, 0xf9, 0xee, 0xc1, 0x3d, 0x8a, 0x79, 0x20, 0x3e,
  0x3b, 0x6b, 0x11, 0xbd, 0xf8, 0xa0, 0x6d, 0xbe, 0xca, 0x8b, 0x66, 0xbe,
  0x79, 0x94, 0x83, 0xbd, 0xe0, 0xca, 0xb0, 0xbe, 0x14, 0x17, 0x44, 0xbe,
  0x96, 0xf0, 0x99, 0x3e, 0x3c, 0xd9, 0xce, 0xbe, 0x50, 0xd7, 0xa4, 0xbd,
  0x07, 0xd9, 0xf7, 0xbe, 0xcf, 0xf3, 0xb7, 0xbc, 0x35, 0x1d, 0xe2, 0x3f,
  0xce, 0x05, 0x19, 0xbf, 0x98, 0xe1, 0x53, 0xbf, 0x8c, 0xec, 0x38, 0xbf,
  0x21, 0x2e, 0x02, 0xbf, 0x07, 0x46, 0xb9, 0x3f, 0xab, 0xc7, 0x13, 0x3d,
  0xdd, 0xdd, 0x13, 0x3f, 0x83, 0xe4, 0x2e, 0xbe, 0x54, 0x8a, 0xc3, 0x3e,
  0x3f, 0x5a, 0x84, 0xbe, 0x06, 0x0f, 0x35, 0xbe, 0xe0, 0xdf, 0x94, 0xbd,
  0x2c, 0xe7, 0x24, 0xbe, 0xd6, 0xc2, 0x9d, 0xbd, 0x93, 0xb4, 0x7a, 0xbe,
  0x09, 0x21, 0x5a, 0xbe, 0x34, 0x4f, 0xad, 0xbd, 0xb4, 0x9d, 0x55, 0x3e,
  0xa2, 0x84, 0x54, 0xbe, 0xe8, 0x4a, 0x3a, 0x3e, 0x9a, 0x64, 0xf0, 0xbd,
  0xe4, 0xfb, 0x21, 0xbe, 0xbc, 0x17, 0x8c, 0xbe, 0x58, 0xe0, 0x0f, 0x3e,
  0x4b, 0x4f, 0x0c, 0x3f, 0x65, 0x0f, 0xe3, 0xbe, 0x99, 0x61, 0x04, 0x3d,
  0x24, 0xc1, 0xe4, 0xbe, 0xfc, 0x48, 0x54, 0xbf, 0xc6, 0x9c, 0xb4, 0x3f,
  0x5f, 0xc8, 0x21, 0xbf, 0x69, 0xf0, 0x23, 0x3f, 0x0b, 0x18, 0xd0, 0x3e,
  0xd2, 0xbf, 0x26, 0xbf, 0x9a, 0x4c, 0x37, 0x3f, 0xad, 0xb0, 0xd8, 0xbe,
  0xa8, 0xd8, 0x8f, 0xbd, 0xb5, 0xf1, 0x80, 0x3e, 0x4e, 0xdd, 0xf5, 0xbd,
  0xb3, 0x4a, 0x84, 0xbe, 0x70, 0x1a, 0x4e, 0x3e, 0xb6, 0x41, 0x9e, 0x3e,
  0xf5, 0xf8, 0x38, 0x3f, 0xc3, 0x0c, 0x9d, 0x3e, 0x92, 0x95, 0x7c, 0xc0,
  0xb0, 0xfb, 0xdf, 0x3f, 0x0f, 0xd1, 0x3e, 0x3f, 0x4c, 0xad, 0x6f, 0x3e,
  0xe3, 0xd0, 0x48, 0x3f, 0x3f, 0x0a, 0x1d, 0xc0, 0x73, 0x6e, 0x02, 0xbd,
  0xed, 0x93, 0xb2, 0xbe, 0xb4, 0x0c, 0xcc, 0xbe, 0x2a, 0x12, 0xce, 0xbe,
  0xff, 0xa0, 0x3c, 0xbd, 0xde, 0x07, 0xd3, 0xbc, 0xd3, 0x66, 0x1e, 0x3e,
  0x6c, 0x60, 0x05, 0xbe, 0x3b, 0xdd, 0x2c, 0xbe, 0x50, 0x97, 0xa7, 0xbd,
  0xed, 0x02, 0x2b, 0x3e, 0x6e, 0x8b, 0x9e, 0x3c, 0xbe, 0x03, 0x59, 0xbd,
  0x86, 0x10, 0x4f, 0xbe, 0x3e, 0xc2, 0x1b, 0xbe, 0x90, 0x99, 0x1c, 0x3c,
  0x1d, 0xd1, 0x59, 0x3d, 0x07, 0x81, 0x8b, 0x3c, 0x23, 0x53, 0x84, 0xbe,
  0x96, 0x85, 0xd8, 0x3d, 0x03, 0xf3, 0x3f, 0x3b, 0xcd, 0x7d, 0x1d, 0xbe,
  0xa8, 0xa0, 0x85, 0xbf, 0x96, 0x64, 0x9f, 0x3e, 0x77, 0x7c, 0xa8, 0x3f,
  0x6f, 0x9d, 0x23, 0xbf, 0x1b, 0x67, 0x95, 0xbf, 0x4b, 0x64, 0xaf, 0xbf,
  0x3c, 0x17, 0x09, 0xbf, 0xe5, 0x81, 0xbc, 0x3f, 0xb2, 0x7b, 0xbe, 0xbd,
  0xdc, 0x75, 0xae, 0xbd, 0x55, 0x4c, 0x65, 0xbe, 0x09, 0xf6, 0xdb, 0xbd,
  0x70, 0x0f, 0x82, 0xbf, 0x01, 0x65, 0x17, 0xc0, 0x2d, 0xd9, 0xc2, 0xbe,
  0x63, 0x71, 0x4c, 0x3f, 0xe2, 0x3d, 0x37, 0x3e, 0x52, 0x42, 0x06, 0x40,
  0xd8, 0x46, 0x9d, 0xbe, 0xfa, 0x8e, 0xd5, 0x3f, 0x50, 0xd1, 0x17, 0x40,
  0x2b, 0xfe, 0x87, 0x3f, 0x85, 0xc4, 0x31, 0xbf, 0x9f, 0x69, 0xec, 0xbf,
  0x1e, 0x83, 0x9d, 0xbe, 0x14, 0xb4, 0x2d, 0xbe, 0x22, 0xfa, 0x93, 0xbe,
  0x9c, 0x6b, 0x89, 0x3f, 0x1c, 0x5c, 0xd9, 0x3f, 0x62, 0x29, 0x95, 0xbd,
  0x2e, 0x6b, 0x32, 0xbf, 0xb3, 0x55, 0xe5, 0x3c, 0x53, 0xa7, 0x92, 0xbf,
  0xc6, 0xb2, 0xb5, 0xbe, 0x47, 0x44, 0xb3, 0xbf, 0x8a, 0xdc, 0x19, 0xc0,
  0xec, 0xc8, 0x73, 0xbf, 0xaa, 0x11, 0xc0, 0x3f, 0x13, 0x15, 0xb1, 0x3f,
  0xef, 0x54, 0x13, 0x3f, 0xc4, 0x16, 0x22, 0x3e, 0x14, 0xbd, 0x2a, 0x3f,
  0x47, 0x93, 0x52, 0xbe, 0xf4, 0x58, 0x87, 0xbe, 0x2d, 0xff, 0xb1, 0x3d,
  0x67, 0xfa, 0x0c, 0x3e, 0x91, 0x07, 0x7f, 0xbd, 0x90, 0xf4, 0xa0, 0xbe,
  0xcd, 0x3d, 0x05, 0x3d, 0xa2, 0x46, 0xe5, 0xbc, 0x95, 0x53, 0x17, 0xbe,
  0x6a, 0x3e, 0x91, 0xbc, 0x07, 0x24, 0x1e, 0xbf, 0x05, 0xd6, 0x54, 0x3e,
  0xe9, 0x32, 0xc0, 0xbe, 0x4f, 0x59, 0x82, 0xbe, 0xe5, 0x7b, 0xbf, 0xbc,
  0xb9, 0x12, 0x97, 0x3f, 0x4c, 0x54, 0xc9, 0x3f, 0xd1, 0x41, 0x40, 0x3e,
  0xb9, 0xf4, 0x20, 0xbf, 0xaa, 0x1c, 0x55, 0xbe, 0x34, 0xca, 0xdc, 0xbf,
  0xd8, 0xe6, 0x32, 0xbe, 0xfe, 0x77, 0x8b, 0xbf, 0x2d, 0xfc, 0xef, 0xbf,
  0x11, 0xc9, 0x63, 0xbf, 0x8b, 0x31, 0x8e, 0x3f, 0x38, 0x4d, 0x4e, 0x3f,
  0x05, 0x1d, 0xc3, 0x3e, 0xf9, 0x0e, 0xc2, 0x3d, 0xc1, 0x5d, 0x80, 0x3e,
  0x5f, 0xcf, 0x25, 0xbd, 0x50, 0xb5, 0xb7, 0x3d, 0x9e, 0x44, 0x8d, 0x3e,
  0x7e, 0x6c, 0x77, 0x3d, 0xd9, 0x62, 0x8d, 0x3d, 0x5c, 0xc4, 0xfb, 0xbf,
  0x3b, 0x8e, 0x13, 0x3f, 0xee, 0xf0, 0x25, 0x3e, 0x85, 0x56, 0x0f, 0xbf,
  0xaa, 0x56, 0xbb, 0x3e, 0x66, 0x36, 0x6c, 0xbf, 0x13, 0x6e, 0xb6, 0x3e,
  0x9f, 0x00, 0x3e, 0xbe, 0x1a, 0xf2, 0x4a, 0x3e, 0xe3, 0xad, 0x5a, 0xbd,
  0x2c, 0x1e, 0xdb, 0xbd, 0xb9, 0x0f, 0x18, 0xbe, 0x62, 0xcd, 0xbd, 0xbd,
  0x7c, 0x0c, 0x2c, 0xbe, 0x70, 0x61, 0xd3, 0xbd, 0xb5, 0xa1, 0x3d, 0xbe,
  0x48, 0xc4, 0xe0, 0xbc, 0xd9, 0xe1, 0xac, 0xbd, 0x68, 0xca, 0x88, 0xbd,
  0x55, 0xdf, 0x11, 0xbe, 0x5e, 0x46, 0xee, 0x3d, 0xda, 0x5e, 0x9e, 0xbd,
  0xc9, 0x78, 0x5e, 0xbe, 0x58, 0x64, 0xf8, 0xbd, 0x22, 0x59, 0x3c, 0xbe,
  0x5c, 0xfd, 0x0e, 0xbc, 0x39, 0x04, 0x0d, 0x3c, 0x97, 0xda, 0xbb, 0xbe,
  0x8a, 0xfd, 0x46, 0xbd, 0x7e, 0x9c, 0xb3, 0xbe, 0x3e, 0x70, 0xd0, 0x3e,
  0xf4, 0x30, 0x96, 0x3a, 0xad, 0x74, 0x2a, 0xbe, 0xe7, 0x2d, 0xf9, 0x3d,
  0x96, 0x57, 0x2c, 0xbe, 0xb7, 0x11, 0xb1, 0x3f, 0x7d, 0x93, 0x08, 0xbf,
  0x84, 0x08, 0xe5, 0x3e, 0x2e, 0x49, 0xeb, 0x3c, 0x0b, 0xa4, 0x01, 0xbe,
  0xaa, 0x7a, 0x24, 0xbd, 0x39, 0x0e, 0x9b, 0x3e, 0xb7, 0xd4, 0xcc, 0xbe,
  0xfd, 0x9b, 0x4b, 0xbe, 0xd3, 0xf3, 0xc2, 0xbd, 0xf9, 0x0a, 0x91, 0x3f,
  0x8b, 0xe9, 0x94, 0xbc, 0x0c, 0x1a, 0x0e, 0xbf, 0x6e, 0xee, 0xd2, 0xbe,
  0xae, 0x88, 0x5c, 0xbe, 0x80, 0x50, 0xc1, 0x3e, 0x85, 0x03, 0xe3, 0x3e,
  0x60, 0x74, 0xb4, 0xbe, 0x0d, 0x51, 0x18, 0xbe, 0xd2, 0x18, 0x90, 0xbe,
  0x79, 0x39, 0x7b, 0xbf, 0x6e, 0x61, 0x0d, 0xc0, 0x67, 0xa5, 0x5a, 0xbe,
  0xdb, 0xaa, 0x97, 0x3f, 0x07, 0xda, 0xf2, 0x3e, 0xdd, 0x10, 0x61, 0x3f,
  0x7c, 0x5b, 0x20, 0xbe, 0xe4, 0xce, 0xf4, 0x3f, 0x6f, 0xe7, 0x15, 0x40,
  0xef, 0x52, 0x9e, 0x3f, 0x19, 0x1d, 0xc0, 0xbf, 0xfb, 0x08, 0x02, 0xc0,
  0x50, 0xe5, 0x19, 0xbe, 0x4f, 0xd8, 0xbe, 0xbe, 0x52, 0x2a, 0x06, 0xbf,
  0x52, 0x40, 0x01, 0xbe, 0x88, 0x67, 0x0c, 0x3f, 0xb8, 0x74, 0x96, 0x3e,
  0xf6, 0xb5, 0x09, 0x3f, 0x8a, 0xb8, 0x31, 0x3e, 0x46, 0xc7, 0x65, 0xc0,
  0xd5, 0xfd, 0xb2, 0x3f, 0x95, 0xde, 0xec, 0x3e, 0xd7, 0x46, 0xaf, 0x3e,
  0xec, 0x5b, 0x9d, 0x3e, 0xe5, 0xf2, 0x13, 0xc0, 0x43, 0x67, 0xb7, 0xbe,
  0x18, 0xe4, 0xf7, 0xbd, 0x88, 0xe0, 0x05, 0xbf, 0x75, 0xeb, 0xa3, 0xbe,
  0xee, 0xf9, 0xa3, 0x3d, 0x88, 0xef, 0x69, 0x3d, 0x47, 0x37, 0x23, 0xbc,
  0x08, 0x82, 0x11, 0x3e, 0xbe, 0xf8, 0x37, 0x3e, 0xc5, 0xe2, 0x67, 0x3c,
  0x6e, 0xa3, 0x71, 0x3c, 0x55, 0x77, 0x71, 0xbd, 0xde, 0x17, 0x43, 0xbe,
  0x7d, 0x76, 0x88, 0xbe, 0x93, 0xdc, 0x90, 0xbc, 0x7c, 0xc2, 0xe9, 0x3b,
  0x96, 0x8d, 0x37, 0xbe, 0xad, 0xc3, 0xc3, 0xbd, 0x3b, 0x7d, 0x93, 0xbe,
  0xea, 0xf7, 0x32, 0x3f, 0x90, 0x70, 0x63, 0x3e, 0x6a, 0x26, 0xdd, 0xbd,
  0x3a, 0xc0, 0x7f, 0xbe, 0x58, 0xcd, 0x33, 0xbe, 0x01, 0x29, 0xe4, 0x3e,
  0x34, 0x5b, 0x43, 0xbf, 0x5c, 0x1b, 0x26, 0xbe, 0xd4, 0xd3, 0x8c, 0xbe,
  0xd2, 0x1d, 0xa4, 0xbd, 0x00, 0xcd, 0x25, 0x3f, 0xc4, 0xf4, 0xbb, 0xbe,
  0x0d, 0x67, 0xf2, 0x3d, 0x4c, 0xb9, 0x4a, 0x3e, 0x23, 0x42, 0xd3, 0xbd,
  0x61, 0x57, 0x02, 0xbd, 0x7c, 0x12, 0x4d, 0x3e, 0xdd, 0x95, 0x45, 0x3e,
  0xdd, 0xfa, 0x00, 0x3e, 0xc2, 0x2f, 0xaa, 0x3e, 0xbf, 0x48, 0x0d, 0x3e,
  0x41, 0x59, 0x10, 0x3c, 0x37, 0x63, 0x2b, 0x3e, 0x4c, 0x6d, 0x2e, 0x3e,
  0x98, 0x1b, 0x60, 0x3e, 0xd3, 0xc0, 0xed, 0xbe, 0x7d, 0x36, 0x8c, 0x3e,
  0x82, 0xfe, 0xab, 0xba, 0x6c, 0x33, 0x14, 0x3e, 0x46, 0xa0, 0x10, 0x3e,
  0x89, 0xad, 0xa7, 0xbc, 0x4b, 0x7c, 0xa8, 0xbe, 0x11, 0x1d, 0x09, 0xbe,
  0xe7, 0x96, 0xe7, 0xbe, 0x37, 0x36, 0xc6, 0x3d, 0x44, 0xee, 0x6c, 0x3f,
  0xbf, 0x25, 0x82, 0x3e, 0xdd, 0x1d, 0x43, 0xbf, 0x5c, 0x82, 0x75, 0xbf,
  0xf8, 0x0d, 0x91, 0xbe, 0x46, 0xbf, 0x8e, 0x3e, 0x8e, 0x73, 0xb2, 0x3e,
  0x28, 0x5c, 0x2a, 0x3d, 0xe0, 0x07, 0xd3, 0xbd, 0x7f, 0x0d, 0x0e, 0x3e,
  0x8a, 0x66, 0xe6, 0xbe, 0xfe, 0xb3, 0x95, 0x3e, 0x89, 0x37, 0x9a, 0x3e,
  0x11, 0xeb, 0x85, 0x3f, 0x9e, 0x03, 0x01, 0x3f, 0xb7, 0x32, 0xab, 0xc0,
  0x3b, 0x33, 0x1c, 0x40, 0x1c, 0x15, 0x8b, 0x3f, 0x79, 0xb3, 0x61, 0x3f,
  0xbf, 0xbb, 0x4a, 0x3f, 0xc4, 0x2d, 0x79, 0xc0, 0x80, 0x54, 0x22, 0xbf,
  0x18, 0xee, 0xc4, 0xbe, 0x6a, 0x59, 0x39, 0xbf, 0x8a, 0x7e, 0x23, 0xbf,
  0x4d, 0xf8, 0xa1, 0x3f, 0xb4, 0x51, 0xc9, 0x3f, 0xfd, 0x20, 0x4a, 0x3e,
  0x55, 0x3d, 0x5d, 0xbf, 0x78, 0x4d, 0x81, 0x3d, 0xbb, 0x99, 0x86, 0xbf,
  0xfa, 0x69, 0x08, 0xbe, 0x37, 0xe0, 0xa4, 0xbf, 0xe4, 0xdd, 0x09, 0xc0,
  0xb2, 0x2b, 0x77, 0xbf, 0xba, 0x8d, 0x7a, 0x3f, 0x44, 0xb2, 0x91, 0x3f,
  0x2a, 0x55, 0xa1, 0x3e, 0x30, 0x71, 0xa5, 0xbd, 0xdb, 0xcb, 0x46, 0x3f,
  0xc3, 0xf2, 0xa8, 0x3e, 0x47, 0x8b, 0x4d, 0x3f, 0xd2, 0x81, 0x66, 0x3e,
  0xd8, 0xd5, 0xa3, 0x3e, 0x19, 0xeb, 0xf6, 0x3e, 0x7b, 0x52, 0x33, 0xc0,
  0x6e, 0x2e, 0x24, 0x3f, 0xf2, 0x4c, 0x9a, 0xbf, 0x58, 0xd8, 0xb4, 0xbe,
  0xba, 0x8d, 0xa4, 0x3e, 0xf7, 0x50, 0xcd, 0xbf, 0x91, 0x05, 0xa8, 0xbd,
  0x59, 0xb2, 0x3b, 0xbf, 0x87, 0x54, 0xf3, 0xbe, 0xaa, 0xa5, 0x07, 0xbe,
  0xfd, 0x91, 0x5f, 0xbe, 0x41, 0x8f, 0x45, 0x3e, 0x12, 0xc9, 0x1d, 0xbe,
  0x86, 0x1f, 0x47, 0x3c, 0xa2, 0x03, 0x46, 0x3e, 0xe8, 0x44, 0x61, 0xbe,
  0xa5, 0xa9, 0x99, 0x3d, 0x88, 0x46, 0x7f, 0x3d, 0x60, 0x3b, 0xd4, 0xbd,
  0x61, 0xb3, 0x48, 0xbe, 0x2c, 0x4c, 0xf2, 0x3d, 0x4f, 0x82, 0xc8, 0x3d,
  0x7e, 0x41, 0x73, 0xbe, 0xbe, 0xf6, 0x63, 0xbd, 0x91, 0x15, 0x89, 0xbe,
  0x3c, 0xec, 0x05, 0x3f, 0x93, 0x54, 0x1d, 0x3e, 0xae, 0x8b, 0xe7, 0xbe,
  0xfc, 0xd7, 0x85, 0x3a, 0x43, 0x54, 0x10, 0xbe, 0xdd, 0x4e, 0x03, 0x3f,
  0x29, 0x32, 0x21, 0xbf, 0x94, 0xba, 0x19, 0x3f, 0x9a, 0x9f, 0x0b, 0xbe,
  0x80, 0x17, 0x31, 0xbf, 0x8b, 0xff, 0xcb, 0xbd, 0xc4, 0x68, 0x57, 0x3e,
  0xd8, 0xff, 0x18, 0x3f, 0x3e, 0x05, 0xf6, 0x3c, 0x08, 0xe9, 0xed, 0xbe,
  0x6b, 0xaf, 0xc3, 0xbe, 0x25, 0x68, 0x6c, 0x3e, 0xa4, 0xea, 0x5f, 0x3e,
  0x2f, 0xe0, 0x65, 0x3e, 0xe0, 0x5f, 0xf3, 0x3d, 0xbc, 0x06, 0xf0, 0xbf,
  0xe9, 0x3d, 0x3a, 0x3f, 0x02, 0x82, 0x81, 0xbe, 0x9e, 0x5c, 0xa6, 0x3d,
  0xb4, 0x8e, 0xf3, 0x3e, 0xfd, 0xe3, 0x4c, 0xbf, 0x9b, 0xf7, 0xf8, 0xbe,
  0xea, 0xe9, 0x5c, 0xbf, 0x88, 0xd1, 0x70, 0xbe, 0x7b, 0x25, 0xa4, 0xbd,
  0x3a, 0x04, 0x89, 0x3f, 0xf1, 0x83, 0xb2, 0x3f, 0xed, 0x51, 0x36, 0x3e,
  0x4d, 0xea, 0x53, 0xbf, 0x99, 0x5c, 0xe5, 0x3d, 0xca, 0x54, 0x78, 0xbf,
  0x5d, 0x78, 0xbe, 0xbe, 0xf1, 0x1a, 0x97, 0xbf, 0x1f, 0x40, 0x08, 0xc0,
  0xf9, 0x7e, 0x4e, 0xbf, 0xbc, 0x66, 0x9e, 0x3f, 0xda, 0x88, 0xb8, 0x3f,
  0x0d, 0xcb, 0xfd, 0x3d, 0xf7, 0xab, 0x95, 0x3d, 0x7b, 0x17, 0x42, 0x3f,
  0x88, 0xa5, 0x3f, 0x3f, 0x53, 0xee, 0xb9, 0xbd, 0x39, 0x63, 0x0c, 0xbe,
  0xc3, 0x8f, 0xd9, 0x3d, 0x0d, 0x17, 0x13, 0xbf, 0xfc, 0x81, 0x1d, 0xc0,
  0x81, 0x04, 0xa7, 0xbe, 0xd8, 0xe9, 0x35, 0x3e, 0x28, 0x04, 0xee, 0xbe,
  0x32, 0xb5, 0x65, 0xbe, 0x17, 0xd4, 0xd7, 0x3e, 0xa2, 0xc9, 0x96, 0x3e,
  0xb1, 0x84, 0xb1, 0xbe, 0x5d, 0x53, 0xd6, 0x3d, 0x63, 0xc1, 0xb3, 0xbe,
  0x6a, 0x3f, 0x50, 0xbd, 0xde, 0x3d, 0x96, 0xbf, 0x80, 0xec, 0xd1, 0x3e,
  0x00, 0xfa, 0xf4, 0x3d, 0xa9, 0xf8, 0xbf, 0xbe, 0x17, 0xd6, 0x71, 0x3f,
  0xa3, 0x74, 0x1f, 0xbf, 0x71, 0x01, 0x16, 0x3f, 0xd5, 0x0c, 0xd9, 0x3e,
  0x0e, 0xc0, 0xa9, 0x3c, 0xaf, 0x5b, 0x91, 0xbe, 0x24, 0x99, 0x97, 0xbf,
  0x0a, 0x87, 0xd4, 0x3e, 0x2d, 0x15, 0x62, 0x3c, 0xd0, 0x4e, 0x5a, 0xbe,
  0x34, 0x8a, 0x49, 0xbe, 0x3e, 0xfe, 0x05, 0xbe, 0xc9, 0x90, 0x9c, 0xbe,
  0x42, 0x90, 0x02, 0x3e, 0xbf, 0x48, 0x4e, 0xbe, 0xbe, 0xf2, 0x09, 0x3d,
  0x90, 0x20, 0x9e, 0xbd, 0xc7, 0x84, 0x5f, 0x3d, 0x47, 0x08, 0x6d, 0x3e,
  0xba, 0xbc, 0x11, 0xbe, 0xb9, 0xb3, 0x18, 0x3e, 0xe6, 0x90, 0xc9, 0xbe,
  0x2f, 0x8a, 0x9f, 0x3c, 0xe9, 0xb1, 0x7f, 0x3d, 0x36, 0xf3, 0xe1, 0x3c,
  0x2f, 0x54, 0x8c, 0x3d, 0x1c, 0x5f, 0xd2, 0xbd, 0xd5, 0xef, 0xc8, 0xbd,
  0xa3, 0xc3, 0xd3, 0xbd, 0xae, 0x77, 0xd2, 0xbc, 0x03, 0x59, 0xe6, 0xbd,
  0x1a, 0x61, 0x33, 0xbd, 0x25, 0xe0, 0x3c, 0xbd, 0x54, 0x6d, 0x39, 0xbe,
  0x56, 0x52, 0x15, 0x3a, 0xc7, 0xd6, 0x01, 0xbe, 0x8b, 0x54, 0x5a, 0xbd,
  0x3a, 0xf9, 0x03, 0xbe, 0xd0, 0x5e, 0x17, 0xbe, 0x24, 0x17, 0xd7, 0xbe,
  0x92, 0x35, 0x37, 0xbe, 0x32, 0x65, 0x08, 0xbe, 0x78, 0x3e, 0x8a, 0xbe,
  0x5a, 0xac, 0x64, 0xbe, 0xe6, 0xf2, 0x81, 0xbe, 0x90, 0x24, 0x21, 0xbe,
  0xfa, 0x5d, 0xd9, 0xbd, 0xe0, 0xff, 0x6e, 0x3c, 0xea, 0x37, 0x89, 0xbd,
  0x38, 0x92, 0x57, 0xbe, 0x90, 0x17, 0xee, 0xbd, 0x7a, 0xb6, 0x22, 0x3e,
  0xe0, 0xa6, 0x3e, 0x3d, 0xc2, 0x79, 0x87, 0x3e, 0x6d, 0x5a, 0x81, 0xbe,
  0x84, 0xf0, 0x2a, 0xbe, 0x88, 0x8d, 0x1e, 0xbd, 0xd1, 0x7f, 0x59, 0xbe,
  0x9c, 0xad, 0xdc, 0x3d, 0x8c, 0x49, 0x67, 0xbe, 0x80, 0x8d, 0x21, 0xbb,
  0xaa, 0x56, 0x73, 0xbe, 0xf0, 0x3c, 0x9d, 0xbc, 0xe8, 0xf0, 0xb3, 0xbd,
  0xf4, 0xcd, 0x82, 0xbe, 0x1a, 0x91, 0x55, 0xbe, 0x82, 0x2c, 0x25, 0x3e,
  0xe0, 0x70, 0x5d, 0x3d, 0xe2, 0x6c, 0xe0, 0xbd, 0xa8, 0x4e, 0x90, 0xbd,
  0xc6, 0xdf, 0x17, 0xbe, 0x3c, 0x94, 0xf5, 0xbd, 0x2e, 0xb7, 0xa7, 0x3c,
  0x60, 0x4d, 0x3e, 0xbe, 0xfe, 0x9a, 0xb7, 0x3c, 0x10, 0xc5, 0xb5, 0x3d,
  0x65, 0x42, 0xf8, 0xbc, 0xc0, 0x60, 0xd8, 0x3d, 0xc0, 0xa0, 0xd0, 0xbd,
  0x84, 0x84, 0x36, 0x3d, 0x40, 0x80, 0xc6, 0xbb, 0x2f, 0xb5, 0x08, 0xbe,
  0x67, 0x6e, 0x2d, 0xbe, 0x95, 0xb6, 0x70, 0x3e, 0x5c, 0x84, 0x9a, 0xbd,
  0xfe, 0xd8, 0x5b, 0x3f, 0xbe, 0x2e, 0xf3, 0x3e, 0x3c, 0x91, 0x71, 0x3d,
  0x12, 0xdb, 0xff, 0xbd, 0x5e, 0xa8, 0xae, 0x3e, 0x85, 0xfe, 0xcd, 0xbf,
  0xc1, 0xe5, 0x12, 0x3d, 0xac, 0xa3, 0x40, 0xbe, 0xeb, 0x25, 0x35, 0xbf,
  0x9c, 0xec, 0xc8, 0x3d, 0xa7, 0x8c, 0xf5, 0xbf, 0x2a, 0xf0, 0x3e, 0x3e,
  0xc6, 0x63, 0xa0, 0xbd, 0xc8, 0x06, 0x99, 0xbe, 0x4b, 0xe0, 0x88, 0xbd,
  0xe1, 0x86, 0x81, 0xbd, 0x44, 0x0c, 0x96, 0xbf, 0x5b, 0xea, 0xf5, 0x3d,
  0x38, 0xf1, 0x12, 0xbf, 0x66, 0xa5, 0x3a, 0xbd, 0xc2, 0xf4, 0x0a, 0x40,
  0xab, 0x23, 0x8d, 0xbf, 0x50, 0x98, 0x55, 0xbe, 0x3e, 0x25, 0x2a, 0x3b,
  0x48, 0x9e, 0xbd, 0xbe, 0xc5, 0xee, 0x7c, 0x3f, 0xf0, 0x36, 0xf1, 0x3d,
  0x60, 0xa0, 0x8d, 0xbd, 0x7c, 0xff, 0x9e, 0x3c, 0x3d, 0x66, 0x56, 0x3e,
  0x24, 0xf4, 0x01, 0xbe, 0xc5, 0x2e, 0x16, 0xbe, 0xd2, 0xc4, 0xc3, 0xbd,
  0x00, 0x3b, 0x76, 0xbb, 0x1c, 0xf6, 0x4d, 0xbd, 0x94, 0xbf, 0x0e, 0xbd,
  0xcc, 0x4e, 0x63, 0xbd, 0x52, 0x82, 0x3b, 0xbe, 0x80, 0x57, 0x21, 0xbe,
  0x4c, 0xd8, 0x2e, 0xbd, 0xa0, 0xc0, 0xa8, 0xbd, 0xe0, 0x40, 0x31, 0xbc,
  0x17, 0x5b, 0x7e, 0xbe, 0x00, 0x1a, 0x11, 0x3e, 0x18, 0x3d, 0x03, 0xbd,
  0xd1, 0x09, 0x64, 0x3f, 0xa6, 0xa2, 0xba, 0x3e, 0xec, 0xaa, 0xf3, 0xbe,
  0x86, 0x4d, 0xce, 0xbe, 0x26, 0xa3, 0x95, 0xbe, 0xa6, 0x1d, 0x08, 0x40,
  0xd9, 0x22, 0x69, 0xbf, 0x81, 0xa8, 0xd9, 0xbe, 0xbe, 0xf8, 0xe8, 0xbc,
  0xcf, 0xfc, 0x8b, 0xbe, 0x6d, 0x92, 0x5a, 0x3f, 0x66, 0xf6, 0xb8, 0x3d,
  0xb6, 0x7e, 0x60, 0xbf, 0xf6, 0x29, 0x08, 0x3e, 0x86, 0xc5, 0xdc, 0xbd,
  0xd3, 0x25, 0xbc, 0x3e, 0xa1, 0x3f, 0x1e, 0xbe, 0xb7, 0xc6, 0x88, 0xbe,
  0x04, 0x62, 0x93, 0xbe, 0xdc, 0xd1, 0xac, 0xbe, 0x28, 0x40, 0x04, 0x3f,
  0xb5, 0x21, 0x00, 0xbe, 0x9f, 0x63, 0x90, 0xbc, 0x01, 0xb5, 0xcd, 0x3d,
  0x4f, 0xa2, 0x7b, 0xbe, 0xbc, 0x7d, 0x83, 0x3f, 0x58, 0xdd, 0xf8, 0xbe,
  0x7e, 0x2a, 0xc8, 0x3e, 0x68, 0xa5, 0x18, 0x3e, 0x30, 0xba, 0xf4, 0x3d,
  0xca, 0xeb, 0x05, 0x3e, 0x14, 0xef, 0xf4, 0xbe, 0x02, 0x10, 0xfc, 0xbe,
  0xa1, 0xb0, 0x52, 0xbe, 0x37, 0x11, 0xa1, 0x3d, 0x1a, 0xc8, 0xd0, 0x3f,
  0x56, 0x6d, 0xb8, 0x3e, 0xd5, 0xe5, 0x43, 0xbf, 0xf9, 0x9d, 0x1c, 0xbf,
  0xa0, 0x80, 0x1d, 0xbd, 0xb3, 0xda, 0xa6, 0x3e, 0xc8, 0xc8, 0x82, 0x3f,
  0x4e, 0x96, 0x92, 0xbe, 0xec, 0x18, 0x37, 0x3e, 0x37, 0xb9, 0xee, 0xb9,
  0x2d, 0x6f, 0xa0, 0x3b, 0xe6, 0x22, 0x7e, 0xbf, 0x45, 0xe3, 0xa3, 0x3d,
  0x9f, 0xac, 0xf0, 0xbe, 0x76, 0xc6, 0x86, 0xbd, 0x09, 0x82, 0x10, 0x40,
  0x8f, 0xee, 0x85, 0xbf, 0xf5, 0x77, 0x9d, 0xbe, 0x1d, 0x58, 0x42, 0xbe,
  0x2c, 0x75, 0xc6, 0xbe, 0xc2, 0x75, 0xa8, 0x3f, 0x08, 0x0a, 0x4f, 0x3e,
  0xea, 0x26, 0xc9, 0x3e, 0xad, 0x95, 0x91, 0xbd, 0xf2, 0x0f, 0xe0, 0x3e,
  0x96, 0xfe, 0xff, 0xff, 0x04, 0x00, 0x00, 0x00, 0x08, 0x00, 0x00, 0x00,
  0xff, 0xff, 0xff, 0xff, 0x0f, 0x00, 0x00, 0x00, 0xaa, 0xfe, 0xff, 0xff,
  0x04, 0x00, 0x00, 0x00, 0x08, 0x00, 0x00, 0x00, 0xbb, 0x8a, 0x30, 0x40,
  0xcd, 0x25, 0xbf, 0x3f, 0xbe, 0xfe, 0xff, 0xff, 0x04, 0x00, 0x00, 0x00,
  0x04, 0x01, 0x00, 0x00, 0x00, 0x00, 0x00, 0x00, 0x42, 0x59, 0xa3, 0xbd,
  0xf9, 0xed, 0x68, 0xbf, 0xd9, 0x1b, 0xf1, 0x3e, 0x34, 0x44, 0x43, 0xc0,
  0x12, 0x2e, 0x24, 0x40, 0x8c, 0xfb, 0x46, 0x40, 0x04, 0x4d, 0xe7, 0xbe,
  0x3a, 0x74, 0x41, 0xbb, 0x93, 0xd2, 0xed, 0xbf, 0xbf, 0x19, 0x87, 0xbe,
  0x62, 0x5d, 0xcc, 0x3c, 0x73, 0x5f, 0x9d, 0xbf, 0x97, 0x4b, 0xd4, 0x3f,
  0x88, 0xf4, 0x9e, 0x3f, 0x50, 0xbb, 0x57, 0xbe, 0x25, 0x60, 0x55, 0xc0,
  0x67, 0x79, 0x1f, 0xbd, 0xb4, 0x50, 0x06, 0x40, 0x30, 0x39, 0xa4, 0x40,
  0xf9, 0xbe, 0x21, 0x40, 0xe5, 0x8e, 0x7d, 0x3f, 0x27, 0x6b, 0x1f, 0x3f,
  0x42, 0xcc, 0x80, 0xbd, 0xa5, 0xc0, 0x54, 0x40, 0x00, 0x00, 0x00, 0x00,
  0x32, 0x22, 0x68, 0x40, 0xd9, 0x23, 0x71, 0x40, 0x44, 0x34, 0xbe, 0xbc,
  0x5b, 0xcb, 0xac, 0x40, 0xc8, 0x58, 0x8a, 0x40, 0x43, 0xb7, 0x71, 0x3f,
  0x61, 0xcf, 0xc6, 0x40, 0xee, 0xaa, 0x84, 0xbf, 0x09, 0xb6, 0x81, 0x40,
  0x0f, 0xcd, 0xad, 0x40, 0xf4, 0x63, 0x98, 0x40, 0xa6, 0xbc, 0xf8, 0x3f,
  0x18, 0xb8, 0xd4, 0xbf, 0x29, 0xef, 0xac, 0x40, 0x9d, 0xfa, 0x7d, 0xbd,
  0xb4, 0x13, 0xb1, 0xbe, 0xa0, 0x4a, 0xee, 0x40, 0x59, 0xd2, 0xdb, 0x3f,
  0xac, 0x4c, 0xcb, 0x40, 0xe5, 0x0a, 0x94, 0x3f, 0xf0, 0xa9, 0x24, 0x40,
  0xae, 0xc8, 0x44, 0xbb, 0xb2, 0x7e, 0x94, 0x3e, 0xb7, 0x74, 0xa0, 0x40,
  0x08, 0x79, 0x4e, 0x3f, 0xe1, 0x49, 0x10, 0x3d, 0x29, 0x3d, 0x55, 0x40,
  0x8a, 0xa5, 0x1b, 0x3d, 0x76, 0xb5, 0xa9, 0x40, 0x00, 0x00, 0x00, 0x00,
  0x00, 0x00, 0x00, 0x00, 0x48, 0x67, 0xc8, 0xbc, 0x44, 0x2a, 0xff, 0x3f,
  0x41, 0xcd, 0xd4, 0x3f, 0x00, 0x00, 0x00, 0x00, 0xcb, 0x94, 0xab, 0x3f,
  0x42, 0x5e, 0x80, 0x40, 0x65, 0xc0, 0xe5, 0xbf, 0x7a, 0x87, 0xc7, 0xbd,
  0xce, 0xff, 0xff, 0xff, 0x04, 0x00, 0x00, 0x00, 0x24, 0x00, 0x00, 0x00,
  0x66, 0xc0, 0xc6, 0x40, 0x4d, 0x0d, 0x13, 0xc0, 0x38, 0x2a, 0x2c, 0xbf,
  0xf0, 0xed, 0x0e, 0xc0, 0x81, 0xd8, 0xb6, 0x3e, 0x9c, 0xf8, 0xd3, 0xbf,
  0xe2, 0xd4, 0x8f, 0xc0, 0xc4, 0xaa, 0x37, 0x3e, 0xde, 0x98, 0x6b, 0xbf,
  0x00, 0x00, 0x06, 0x00, 0x08, 0x00, 0x04, 0x00, 0x06, 0x00, 0x00, 0x00,
  0x04, 0x00, 0x00, 0x00, 0x04, 0x00, 0x00, 0x00, 0x85, 0xc7, 0x8b, 0xbd,
  0xf0, 0xf8, 0xff, 0xff, 0xf4, 0xf8, 0xff, 0xff, 0x0f, 0x00, 0x00, 0x00,
  0x4d, 0x4c, 0x49, 0x52, 0x20, 0x43, 0x6f, 0x6e, 0x76, 0x65, 0x72, 0x74,
  0x65, 0x64, 0x2e, 0x00, 0x01, 0x00, 0x00, 0x00, 0x14, 0x00, 0x00, 0x00,
  0x00, 0x00, 0x0e, 0x00, 0x18, 0x00, 0x14, 0x00, 0x10, 0x00, 0x0c, 0x00,
  0x08, 0x00, 0x04, 0x00, 0x0e, 0x00, 0x00, 0x00, 0x14, 0x00, 0x00, 0x00,
  0x1c, 0x00, 0x00, 0x00, 0x90, 0x01, 0x00, 0x00, 0x94, 0x01, 0x00, 0x00,
  0x98, 0x01, 0x00, 0x00, 0x04, 0x00, 0x00, 0x00, 0x6d, 0x61, 0x69, 0x6e,
  0x00, 0x00, 0x00, 0x00, 0x05, 0x00, 0x00, 0x00, 0x28, 0x01, 0x00, 0x00,
  0xc4, 0x00, 0x00, 0x00, 0x8c, 0x00, 0x00, 0x00, 0x3c, 0x00, 0x00, 0x00,
  0x04, 0x00, 0x00, 0x00, 0x5a, 0xff, 0xff, 0xff, 0x14, 0x00, 0x00, 0x00,
  0x00, 0x00, 0x00, 0x08, 0x10, 0x00, 0x00, 0x00, 0x14, 0x00, 0x00, 0x00,
  0x03, 0x00, 0x00, 0x00, 0x78, 0xf9, 0xff, 0xff, 0x01, 0x00, 0x00, 0x00,
  0x0c, 0x00, 0x00, 0x00, 0x03, 0x00, 0x00, 0x00, 0x0b, 0x00, 0x00, 0x00,
  0x07, 0x00, 0x00, 0x00, 0x04, 0x00, 0x00, 0x00, 0x8e, 0xff, 0xff, 0xff,
  0x1c, 0x00, 0x00, 0x00, 0x00, 0x00, 0x00, 0x08, 0x1c, 0x00, 0x00, 0x00,
  0x20, 0x00, 0x00, 0x00, 0x03, 0x00, 0x00, 0x00, 0x00, 0x00, 0x06, 0x00,
  0x08, 0x00, 0x07, 0x00, 0x06, 0x00, 0x00, 0x00, 0x00, 0x00, 0x00, 0x01,
  0x01, 0x00, 0x00, 0x00, 0x0b, 0x00, 0x00, 0x00, 0x03, 0x00, 0x00, 0x00,
  0x0a, 0x00, 0x00, 0x00, 0x06, 0x00, 0x00, 0x00, 0x03, 0x00, 0x00, 0x00,
  0x00, 0x00, 0x0a, 0x00, 0x10, 0x00, 0x0c, 0x00, 0x08, 0x00, 0x04, 0x00,
  0x0a, 0x00, 0x00, 0x00, 0x0c, 0x00, 0x00, 0x00, 0x10, 0x00, 0x00, 0x00,
  0x02, 0x00, 0x00, 0x00, 0x01, 0x00, 0x00, 0x00, 0x0a, 0x00, 0x00, 0x00,
  0x02, 0x00, 0x00, 0x00, 0x09, 0x00, 0x00, 0x00, 0x05, 0x00, 0x00, 0x00,
  0x00, 0x00, 0x0e, 0x00, 0x1a, 0x00, 0x14, 0x00, 0x10, 0x00, 0x0c, 0x00,
  0x0b, 0x00, 0x04, 0x00, 0x0e, 0x00, 0x00, 0x00, 0x24, 0x00, 0x00, 0x00,
  0x00, 0x00, 0x00, 0x05, 0x34, 0x00, 0x00, 0x00, 0x38, 0x00, 0x00, 0x00,
  0x01, 0x00, 0x00, 0x00, 0x00, 0x00, 0x0e, 0x00, 0x18, 0x00, 0x17, 0x00,
  0x10, 0x00, 0x0c, 0x00, 0x08, 0x00, 0x04, 0x00, 0x0e, 0x00, 0x00, 0x00,
  0x02, 0x00, 0x00, 0x00, 0x02, 0x00, 0x00, 0x00, 0x02, 0x00, 0x00, 0x00,
  0x02, 0x00, 0x00, 0x00, 0x00, 0x00, 0x00, 0x01, 0x01, 0x00, 0x00, 0x00,
  0x09, 0x00, 0x00, 0x00, 0x01, 0x00, 0x00, 0x00, 0x08, 0x00, 0x00, 0x00,
  0x00, 0x00, 0x0e, 0x00, 0x14, 0x00, 0x00, 0x00, 0x10, 0x00, 0x0c, 0x00,
  0x0b, 0x00, 0x04, 0x00, 0x0e, 0x00, 0x00, 0x00, 0x1c, 0x00, 0x00, 0x00,
  0x00, 0x00, 0x00, 0x01, 0x28, 0x00, 0x00, 0x00, 0x2c, 0x00, 0x00, 0x00,
  0x0c, 0x00, 0x14, 0x00, 0x13, 0x00, 0x0c, 0x00, 0x08, 0x00, 0x07, 0x00,
  0x0c, 0x00, 0x00, 0x00, 0x00, 0x00, 0x00, 0x01, 0x01, 0x00, 0x00, 0x00,
  0x01, 0x00, 0x00, 0x00, 0x00, 0x00, 0x00, 0x01, 0x01, 0x00, 0x00, 0x00,
  0x08, 0x00, 0x00, 0x00, 0x03, 0x00, 0x00, 0x00, 0x00, 0x00, 0x00, 0x00,
  0x02, 0x00, 0x00, 0x00, 0x01, 0x00, 0x00, 0x00, 0x01, 0x00, 0x00, 0x00,
  0x0c, 0x00, 0x00, 0x00, 0x01, 0x00, 0x00, 0x00, 0x00, 0x00, 0x00, 0x00,
  0x0d, 0x00, 0x00, 0x00, 0xfc, 0x04, 0x00, 0x00, 0x8c, 0x04, 0x00, 0x00,
  0x20, 0x04, 0x00, 0x00, 0xcc, 0x03, 0x00, 0x00, 0x74, 0x03, 0x00, 0x00,
  0x28, 0x03, 0x00, 0x00, 0xc8, 0x02, 0x00, 0x00, 0x7c, 0x02, 0x00, 0x00,
  0xb8, 0x01, 0x00, 0x00, 0x44, 0x01, 0x00, 0x00, 0xe8, 0x00, 0x00, 0x00,
  0x60, 0x00, 0x00, 0x00, 0x04, 0x00, 0x00, 0x00, 0x4e, 0xfb, 0xff, 0xff,
  0x00, 0x00, 0x00, 0x01, 0x14, 0x00, 0x00, 0x00, 0x1c, 0x00, 0x00, 0x00,
  0x1c, 0x00, 0x00, 0x00, 0x0d, 0x00, 0x00, 0x00, 0x34, 0x00, 0x00, 0x00,
  0x02, 0x00, 0x00, 0x00, 0xff, 0xff, 0xff, 0xff, 0x02, 0x00, 0x00, 0x00,
  0x30, 0xfb, 0xff, 0xff, 0x19, 0x00, 0x00, 0x00, 0x53, 0x74, 0x61, 0x74,
  0x65, 0x66, 0x75, 0x6c, 0x50, 0x61, 0x72, 0x74, 0x69, 0x74, 0x69, 0x6f,
  0x6e, 0x65, 0x64, 0x43, 0x61, 0x6c, 0x6c, 0x3a, 0x30, 0x00, 0x00, 0x00,
  0x02, 0x00, 0x00, 0x00, 0x01, 0x00, 0x00, 0x00, 0x02, 0x00, 0x00, 0x00,
  0xa6, 0xfb, 0xff, 0xff, 0x00, 0x00, 0x00, 0x01, 0x14, 0x00, 0x00, 0x00,
  0x1c, 0x00, 0x00, 0x00, 0x1c, 0x00, 0x00, 0x00, 0x0c, 0x00, 0x00, 0x00,
  0x60, 0x00, 0x00, 0x00, 0x02, 0x00, 0x00, 0x00, 0xff, 0xff, 0xff, 0xff,
  0x41, 0x00, 0x00, 0x00, 0x88, 0xfb, 0xff, 0xff, 0x46, 0x00, 0x00, 0x00,
  0x73, 0x65, 0x71, 0x75, 0x65, 0x6e, 0x74, 0x69, 0x61, 0x6c, 0x2f, 0x64,
  0x65, 0x6e, 0x73, 0x65, 0x2f, 0x4d, 0x61, 0x74, 0x4d, 0x75, 0x6c, 0x3b,
  0x73, 0x65, 0x71, 0x75, 0x65, 0x6e, 0x74, 0x69, 0x61, 0x6c, 0x2f, 0x64,
  0x65, 0x6e, 0x73, 0x65, 0x2f, 0x52, 0x65, 0x6c, 0x75, 0x3b, 0x73, 0x65,
  0x71, 0x75, 0x65, 0x6e, 0x74, 0x69, 0x61, 0x6c, 0x2f, 0x64, 0x65, 0x6e,
  0x73, 0x65, 0x2f, 0x42, 0x69, 0x61, 0x73, 0x41, 0x64, 0x64, 0x00, 0x00,
  0x02, 0x00, 0x00, 0x00, 0x01, 0x00, 0x00, 0x00, 0x41, 0x00, 0x00, 0x00,
  0x2a, 0xfc, 0xff, 0xff, 0x00, 0x00, 0x00, 0x01, 0x14, 0x00, 0x00, 0x00,
  0x1c, 0x00, 0x00, 0x00, 0x1c, 0x00, 0x00, 0x00, 0x0b, 0x00, 0x00, 0x00,
  0x34, 0x00, 0x00, 0x00, 0x02, 0x00, 0x00, 0x00, 0xff, 0xff, 0xff, 0xff,
  0x0f, 0x00, 0x00, 0x00, 0x0c, 0xfc, 0xff, 0xff, 0x1a, 0x00, 0x00, 0x00,
  0x73, 0x65, 0x71, 0x75, 0x65, 0x6e, 0x74, 0x69, 0x61, 0x6c, 0x2f, 0x66,
  0x6c, 0x61, 0x74, 0x74, 0x65, 0x6e, 0x2f, 0x52, 0x65, 0x73, 0x68, 0x61,
  0x70, 0x65, 0x00, 0x00, 0x02, 0x00, 0x00, 0x00, 0x01, 0x00, 0x00, 0x00,
  0x0f, 0x00, 0x00, 0x00, 0x82, 0xfc, 0xff, 0xff, 0x00, 0x00, 0x00, 0x01,
  0x14, 0x00, 0x00, 0x00, 0x24, 0x00, 0x00, 0x00, 0x24, 0x00, 0x00, 0x00,
  0x0a, 0x00, 0x00, 0x00, 0x44, 0x00, 0x00, 0x00, 0x04, 0x00, 0x00, 0x00,
  0xff, 0xff, 0xff, 0xff, 0x03, 0x00, 0x00, 0x00, 0x05, 0x00, 0x00, 0x00,
  0x01, 0x00, 0x00, 0x00, 0x6c, 0xfc, 0xff, 0xff, 0x20, 0x00, 0x00, 0x00,
  0x73, 0x65, 0x71, 0x75, 0x65, 0x6e, 0x74, 0x69, 0x61, 0x6c, 0x2f, 0x6d,
  0x61, 0x78, 0x5f, 0x70, 0x6f, 0x6f, 0x6c, 0x69, 0x6e, 0x67, 0x32, 0x64,
  0x2f, 0x4d, 0x61, 0x78, 0x50, 0x6f, 0x6f, 0x6c, 0x00, 0x00, 0x00, 0x00,
  0x04, 0x00, 0x00, 0x00, 0x01, 0x00, 0x00, 0x00, 0x03, 0x00, 0x00, 0x00,
  0x05, 0x00, 0x00, 0x00, 0x01, 0x00, 0x00, 0x00, 0xf2, 0xfc, 0xff, 0xff,
  0x00, 0x00, 0x00, 0x01, 0x14, 0x00, 0x00, 0x00, 0x24, 0x00, 0x00, 0x00,
  0x24, 0x00, 0x00, 0x00, 0x09, 0x00, 0x00, 0x00, 0x94, 0x00, 0x00, 0x00,
  0x04, 0x00, 0x00, 0x00, 0xff, 0xff, 0xff, 0xff, 0x07, 0x00, 0x00, 0x00,
  0x0a, 0x00, 0x00, 0x00, 0x01, 0x00, 0x00, 0x00, 0xdc, 0xfc, 0xff, 0xff,
  0x72, 0x00, 0x00, 0x00, 0x73, 0x65, 0x71, 0x75, 0x65, 0x6e, 0x74, 0x69,
  0x61, 0x6c, 0x2f, 0x63, 0x6f, 0x6e, 0x76, 0x32, 0x64, 0x2f, 0x52, 0x65,
  0x6c, 0x75, 0x3b, 0x73, 0x65, 0x71, 0x75, 0x65, 0x6e, 0x74, 0x69, 0x61,
  0x6c, 0x2f, 0x63, 0x6f, 0x6e, 0x76, 0x32, 0x64, 0x2f, 0x42, 0x69, 0x61,
  0x73, 0x41, 0x64, 0x64, 0x3b, 0x73, 0x65, 0x71, 0x75, 0x65, 0x6e, 0x74,
  0x69, 0x61, 0x6c, 0x2f, 0x63, 0x6f, 0x6e, 0x76, 0x32, 0x64, 0x2f, 0x43,
  0x6f, 0x6e, 0x76, 0x32, 0x44, 0x3b, 0x73, 0x65, 0x71, 0x75, 0x65, 0x6e,
  0x74, 0x69, 0x61, 0x6c, 0x2f, 0x63, 0x6f, 0x6e, 0x76, 0x32, 0x64, 0x2f,
  0x42, 0x69, 0x61, 0x73, 0x41, 0x64, 0x64, 0x2f, 0x52, 0x65, 0x61, 0x64,
  0x56, 0x61, 0x72, 0x69, 0x61, 0x62, 0x6c, 0x65, 0x4f, 0x70, 0x00, 0x00,
  0x04, 0x00, 0x00, 0x00, 0x01, 0x00, 0x00, 0x00, 0x07, 0x00, 0x00, 0x00,
  0x0a, 0x00, 0x00, 0x00, 0x01, 0x00, 0x00, 0x00, 0x1e, 0xfe, 0xff, 0xff,
  0x00, 0x00, 0x00, 0x01, 0x10, 0x00, 0x00, 0x00, 0x10, 0x00, 0x00, 0x00,
  0x08, 0x00, 0x00, 0x00, 0x28, 0x00, 0x00, 0x00, 0x84, 0xfd, 0xff, 0xff,
  0x19, 0x00, 0x00, 0x00, 0x73, 0x65, 0x71, 0x75, 0x65, 0x6e, 0x74, 0x69,
  0x61, 0x6c, 0x2f, 0x64, 0x65, 0x6e, 0x73, 0x65, 0x5f, 0x31, 0x2f, 0x4d,
  0x61, 0x74, 0x4d, 0x75, 0x6c, 0x00, 0x00, 0x00, 0x02, 0x00, 0x00, 0x00,
  0x02, 0x00, 0x00, 0x00, 0x41, 0x00, 0x00, 0x00, 0x66, 0xfe, 0xff, 0xff,
  0x00, 0x00, 0x00, 0x01, 0x10, 0x00, 0x00, 0x00, 0x10, 0x00, 0x00, 0x00,
  0x07, 0x00, 0x00, 0x00, 0x24, 0x00, 0x00, 0x00, 0xcc, 0xfd, 0xff, 0xff,
  0x17, 0x00, 0x00, 0x00, 0x73, 0x65, 0x71, 0x75, 0x65, 0x6e, 0x74, 0x69,
  0x61, 0x6c, 0x2f, 0x64, 0x65, 0x6e, 0x73, 0x65, 0x2f, 0x4d, 0x61, 0x74,
  0x4d, 0x75, 0x6c, 0x00, 0x02, 0x00, 0x00, 0x00, 0x41, 0x00, 0x00, 0x00,
  0x0f, 0x00, 0x00, 0x00, 0x00, 0x00, 0x16, 0x00, 0x1c, 0x00, 0x18, 0x00,
  0x17, 0x00, 0x10, 0x00, 0x0c, 0x00, 0x08, 0x00, 0x00, 0x00, 0x00, 0x00,
  0x00, 0x00, 0x07, 0x00, 0x16, 0x00, 0x00, 0x00, 0x00, 0x00, 0x00, 0x01,
  0x14, 0x00, 0x00, 0x00, 0x14, 0x00, 0x00, 0x00, 0x06, 0x00, 0x00, 0x00,
  0x00, 0x00, 0x00, 0x02, 0x28, 0x00, 0x00, 0x00, 0x2c, 0xfe, 0xff, 0xff,
  0x18, 0x00, 0x00, 0x00, 0x73, 0x65, 0x71, 0x75, 0x65, 0x6e, 0x74, 0x69,
  0x61, 0x6c, 0x2f, 0x66, 0x6c, 0x61, 0x74, 0x74, 0x65, 0x6e, 0x2f, 0x43,
  0x6f, 0x6e, 0x73, 0x74, 0x00, 0x00, 0x00, 0x00, 0x01, 0x00, 0x00, 0x00,
  0x02, 0x00, 0x00, 0x00, 0x0a, 0xff, 0xff, 0xff, 0x00, 0x00, 0x00, 0x01,
  0x10, 0x00, 0x00, 0x00, 0x10, 0x00, 0x00, 0x00, 0x05, 0x00, 0x00, 0x00,
  0x38, 0x00, 0x00, 0x00, 0x70, 0xfe, 0xff, 0xff, 0x29, 0x00, 0x00, 0x00,
  0x73, 0x65, 0x71, 0x75, 0x65, 0x6e, 0x74, 0x69, 0x61, 0x6c, 0x2f, 0x64,
  0x65, 0x6e, 0x73, 0x65, 0x5f, 0x31, 0x2f, 0x42, 0x69, 0x61, 0x73, 0x41,
  0x64, 0x64, 0x2f, 0x52, 0x65, 0x61, 0x64, 0x56, 0x61, 0x72, 0x69, 0x61,
  0x62, 0x6c, 0x65, 0x4f, 0x70, 0x00, 0x00, 0x00, 0x01, 0x00, 0x00, 0x00,
  0x02, 0x00, 0x00, 0x00, 0x5e, 0xff, 0xff, 0xff, 0x00, 0x00, 0x00, 0x01,
  0x10, 0x00, 0x00, 0x00, 0x10, 0x00, 0x00, 0x00, 0x04, 0x00, 0x00, 0x00,
  0x34, 0x00, 0x00, 0x00, 0xc4, 0xfe, 0xff, 0xff, 0x27, 0x00, 0x00, 0x00,
  0x73, 0x65, 0x71, 0x75, 0x65, 0x6e, 0x74, 0x69, 0x61, 0x6c, 0x2f, 0x64,
  0x65, 0x6e, 0x73, 0x65, 0x2f, 0x42, 0x69, 0x61, 0x73, 0x41, 0x64, 0x64,
  0x2f, 0x52, 0x65, 0x61, 0x64, 0x56, 0x61, 0x72, 0x69, 0x61, 0x62, 0x6c,
  0x65, 0x4f, 0x70, 0x00, 0x01, 0x00, 0x00, 0x00, 0x41, 0x00, 0x00, 0x00,
  0xae, 0xff, 0xff, 0xff, 0x00, 0x00, 0x00, 0x01, 0x10, 0x00, 0x00, 0x00,
  0x10, 0x00, 0x00, 0x00, 0x03, 0x00, 0x00, 0x00, 0x28, 0x00, 0x00, 0x00,
  0x14, 0xff, 0xff, 0xff, 0x18, 0x00, 0x00, 0x00, 0x73, 0x65, 0x71, 0x75,
  0x65, 0x6e, 0x74, 0x69, 0x61, 0x6c, 0x2f, 0x63, 0x6f, 0x6e, 0x76, 0x32,
  0x64, 0x2f, 0x43, 0x6f, 0x6e, 0x76, 0x32, 0x44, 0x00, 0x00, 0x00, 0x00,
  0x04, 0x00, 0x00, 0x00, 0x01, 0x00, 0x00, 0x00, 0x03, 0x00, 0x00, 0x00,
  0x03, 0x00, 0x00, 0x00, 0x01, 0x00, 0x00, 0x00, 0x00, 0x00, 0x16, 0x00,
  0x18, 0x00, 0x14, 0x00, 0x00, 0x00, 0x10, 0x00, 0x0c, 0x00, 0x08, 0x00,
  0x00, 0x00, 0x00, 0x00, 0x00, 0x00, 0x07, 0x00, 0x16, 0x00, 0x00, 0x00,
  0x00, 0x00, 0x00, 0x01, 0x10, 0x00, 0x00, 0x00, 0x10, 0x00, 0x00, 0x00,
  0x02, 0x00, 0x00, 0x00, 0x38, 0x00, 0x00, 0x00, 0x7c, 0xff, 0xff, 0xff,
  0x28, 0x00, 0x00, 0x00, 0x73, 0x65, 0x71, 0x75, 0x65, 0x6e, 0x74, 0x69,
  0x61, 0x6c, 0x2f, 0x63, 0x6f, 0x6e, 0x76, 0x32, 0x64, 0x2f, 0x42, 0x69,
  0x61, 0x73, 0x41, 0x64, 0x64, 0x2f, 0x52, 0x65, 0x61, 0x64, 0x56, 0x61,
  0x72, 0x69, 0x61, 0x62, 0x6c, 0x65, 0x4f, 0x70, 0x00, 0x00, 0x00, 0x00,
  0x01, 0x00, 0x00, 0x00, 0x01, 0x00, 0x00, 0x00, 0x00, 0x00, 0x16, 0x00,
  0x1c, 0x00, 0x18, 0x00, 0x00, 0x00, 0x14, 0x00, 0x10, 0x00, 0x0c, 0x00,
  0x00, 0x00, 0x00, 0x00, 0x08, 0x00, 0x07, 0x00, 0x16, 0x00, 0x00, 0x00,
  0x00, 0x00, 0x00, 0x01, 0x14, 0x00, 0x00, 0x00, 0x28, 0x00, 0x00, 0x00,
  0x28, 0x00, 0x00, 0x00, 0x01, 0x00, 0x00, 0x00, 0x44, 0x00, 0x00, 0x00,
  0x04, 0x00, 0x00, 0x00, 0xff, 0xff, 0xff, 0xff, 0x09, 0x00, 0x00, 0x00,
  0x0c, 0x00, 0x00, 0x00, 0x01, 0x00, 0x00, 0x00, 0x04, 0x00, 0x04, 0x00,
  0x04, 0x00, 0x00, 0x00, 0x1e, 0x00, 0x00, 0x00, 0x73, 0x65, 0x72, 0x76,
  0x69, 0x6e, 0x67, 0x5f, 0x64, 0x65, 0x66, 0x61, 0x75, 0x6c, 0x74, 0x5f,
  0x63, 0x6f, 0x6e, 0x76, 0x32, 0x64, 0x5f, 0x69, 0x6e, 0x70, 0x75, 0x74,
  0x3a, 0x30, 0x00, 0x00, 0x04, 0x00, 0x00, 0x00, 0x01, 0x00, 0x00, 0x00,
  0x09, 0x00, 0x00, 0x00, 0x0c, 0x00, 0x00, 0x00, 0x01, 0x00, 0x00, 0x00,
  0x04, 0x00, 0x00, 0x00, 0x40, 0x00, 0x00, 0x00, 0x24, 0x00, 0x00, 0x00,
  0x14, 0x00, 0x00, 0x00, 0x04, 0x00, 0x00, 0x00, 0xdc, 0xff, 0xff, 0xff,
  0x09, 0x00, 0x00, 0x00, 0x00, 0x00, 0x00, 0x09, 0xe8, 0xff, 0xff, 0xff,
  0x16, 0x00, 0x00, 0x00, 0x00, 0x00, 0x00, 0x16, 0xf4, 0xff, 0xff, 0xff,
  0x11, 0x00, 0x00, 0x00, 0x00, 0x00, 0x00, 0x11, 0x0c, 0x00, 0x0c, 0x00,
  0x0b, 0x00, 0x00, 0x00, 0x00, 0x00, 0x04, 0x00, 0x0c, 0x00, 0x00, 0x00,
  0x03, 0x00, 0x00, 0x00, 0x00, 0x00, 0x00, 0x03
};
unsigned int model_tflite_len = 7256;
