#include <cstdint>

#include "/home/emil/Desktop/shared_ubuntu/new/tflite-micro/tensorflow/lite/micro/examples/meta/models/meta_float_model_data.h"

alignas(16) const unsigned char g_meta_float_model_data[] = {0x1c,0x0,0x0,0x0,0x54,0x46,0x4c,0x33,0x14,0x0,0x20,0x0,0x1c,0x0,0x18,0x0,0x14,0x0,0x10,0x0,0xc,0x0,0x0,0x0,0x8,0x0,0x4,0x0,0x14,0x0,0x0,0x0,0x1c,0x0,0x0,0x0,0x88,0x0,0x0,0x0,0xe0,0x0,0x0,0x0,0x94,0x14,0x0,0x0,0xa4,0x14,0x0,0x0,0xd4,0x1b,0x0,0x0,0x3,0x0,0x0,0x0,0x1,0x0,0x0,0x0,0x4,0x0,0x0,0x0,0xa6,0xea,0xff,0xff,0xc,0x0,0x0,0x0,0x1c,0x0,0x0,0x0,0x38,0x0,0x0,0x0,0xf,0x0,0x0,0x0,0x73,0x65,0x72,0x76,0x69,0x6e,0x67,0x5f,0x64,0x65,0x66,0x61,0x75,0x6c,0x74,0x0,0x1,0x0,0x0,0x0,0x4,0x0,0x0,0x0,0x94,0xff,0xff,0xff,0xc,0x0,0x0,0x0,0x4,0x0,0x0,0x0,0x7,0x0,0x0,0x0,0x64,0x65,0x6e,0x73,0x65,0x5f,0x31,0x0,0x1,0x0,0x0,0x0,0x4,0x0,0x0,0x0,0xee,0xeb,0xff,0xff,0x4,0x0,0x0,0x0,0xc,0x0,0x0,0x0,0x63,0x6f,0x6e,0x76,0x32,0x64,0x5f,0x69,0x6e,0x70,0x75,0x74,0x0,0x0,0x0,0x0,0x2,0x0,0x0,0x0,0x34,0x0,0x0,0x0,0x4,0x0,0x0,0x0,0xdc,0xff,0xff,0xff,0xf,0x0,0x0,0x0,0x4,0x0,0x0,0x0,0x13,0x0,0x0,0x0,0x43,0x4f,0x4e,0x56,0x45,0x52,0x53,0x49,0x4f,0x4e,0x5f,0x4d,0x45,0x54,0x41,0x44,0x41,0x54,0x41,0x0,0x8,0x0,0xc,0x0,0x8,0x0,0x4,0x0,0x8,0x0,0x0,0x0,0xe,0x0,0x0,0x0,0x4,0x0,0x0,0x0,0x13,0x0,0x0,0x0,0x6d,0x69,0x6e,0x5f,0x72,0x75,0x6e,0x74,0x69,0x6d,0x65,0x5f,0x76,0x65,0x72,0x73,0x69,0x6f,0x6e,0x0,0x10,0x0,0x0,0x0,0xb0,0x13,0x0,0x0,0xa8,0x13,0x0,0x0,0x94,0x13,0x0,0x0,0x58,0x13,0x0,0x0,0x44,0x12,0x0,0x0,0x2c,0x12,0x0,0x0,0x14,0x12,0x0,0x0,0xc8,0x2,0x0,0x0,0xb0,0x0,0x0,0x0,0xa8,0x0,0x0,0x0,0xa0,0x0,0x0,0x0,0x98,0x0,0x0,0x0,0x90,0x0,0x0,0x0,0x88,0x0,0x0,0x0,0x68,0x0,0x0,0x0,0x4,0x0,0x0,0x0,0xaa,0xec,0xff,0xff,0x4,0x0,0x0,0x0,0x54,0x0,0x0,0x0,0xc,0x0,0x0,0x0,0x8,0x0,0xe,0x0,0x8,0x0,0x4,0x0,0x8,0x0,0x0,0x0,0x10,0x0,0x0,0x0,0x24,0x0,0x0,0x0,0x0,0x0,0x6,0x0,0x8,0x0,0x4,0x0,0x6,0x0,0x0,0x0,0x4,0x0,0x0,0x0,0x0,0x0,0x0,0x0,0x0,0x0,0xa,0x0,0x10,0x0,0xc,0x0,0x8,0x0,0x4,0x0,0xa,0x0,0x0,0x0,0x2,0x0,0x0,0x0,0x2,0x0,0x0,0x0,0x4,0x0,0x0,0x0,0x6,0x0,0x0,0x0,0x32,0x2e,0x31,0x32,0x2e,0x30,0x0,0x0,0xa,0xed,0xff,0xff,0x4,0x0,0x0,0x0,0x10,0x0,0x0,0x0,0x31,0x2e,0x35,0x2e,0x30,0x0,0x0,0x0,0x0,0x0,0x0,0x0,0x0,0x0,0x0,0x0,0x0,0xe6,0xff,0xff,0x4,0xe6,0xff,0xff,0x8,0xe6,0xff,0xff,0xc,0xe6,0xff,0xff,0x10,0xe6,0xff,0xff,0x3a,0xed,0xff,0xff,0x4,0x0,0x0,0x0,0x8,0x2,0x0,0x0,0xc8,0x69,0xa8,0xc0,0xde,0x82,0x3c,0x3f,0xbb,0x86,0xbd,0x40,0x4a,0xf2,0x94,0xbe,0x8d,0xe7,0x67,0x41,0x77,0x3c,0xd9,0x3f,0x58,0x6b,0x5e,0x3f,0x8a,0x9,0x49,0x3e,0x81,0x77,0x4b,0x40,0x5b,0xe3,0x9e,0xbf,0x65,0xad,0xaa,0xc0,0x74,0xe8,0x70,0x3f,0xe0,0xf5,0x40,0xbe,0xbb,0x28,0x8d,0x40,0xd6,0x67,0x39,0xbf,0x4,0xc7,0xe0,0x3f,0xc1,0x68,0x59,0x40,0x5,0x86,0x58,0xc0,0x54,0x48,0x79,0xbf,0x4b,0xd8,0xec,0x3f,0x9,0x3d,0x80,0x3f,0x8c,0x4f,0x5e,0xc0,0x79,0xc1,0x59,0xbf,0x0,0xb5,0x4f,0x3c,0x37,0x7c,0xb8,0xbe,0x2c,0x82,0x11,0x3f,0x65,0x45,0x4f,0xbe,0x84,0x56,0x5a,0x3f,0x20,0x9e,0x57,0x40,0x82,0xd5,0x8c,0x40,0x8d,0xf3,0x85,0xc0,0xca,0xcb,0x7c,0x3f,0xb3,0xe2,0x35,0x40,0xff,0x44,0x2,0xbf,0xd2,0x3,0xcc,0xbf,0x98,0x2e,0x25,0x3e,0x2d,0xea,0x85,0xbf,0xa,0x91,0x9a,0x3f,0x53,0xbe,0xc8,0x3f,0xa3,0xc6,0x18,0xc1,0x92,0xaf,0x91,0xbf,0xb,0xfd,0x60,0x40,0x38,0xe0,0xa5,0xc0,0x76,0x62,0x1e,0x40,0xf2,0x77,0x75,0xbf,0x36,0x2e,0xc8,0xc0,0xe2,0x66,0x63,0x3d,0xd6,0x7,0x18,0xc0,0x8c,0x81,0x37,0x3f,0x27,0xa2,0xa2,0x3f,0x69,0xdb,0xa0,0x3e,0x28,0x3c,0xa6,0x3f,0x64,0xfe,0x5d,0x3f,0xcc,0xe4,0x2f,0xc0,0x39,0xdd,0x5b,0x40,0x19,0xa2,0xa2,0x3f,0x18,0xce,0x39,0xbd,0xae,0xe0,0x7f,0xc0,0x3c,0x30,0x9,0x3f,0x42,0xa4,0x26,0x40,0x76,0x3,0x8,0x40,0x3e,0x35,0x87,0xbf,0x24,0xea,0x37,0xbf,0x9a,0xf0,0xa3,0x3f,0x3b,0xf9,0x5a,0x3f,0xf5,0x9c,0xaa,0x40,0xb7,0x0,0x8f,0x3e,0x31,0x5,0xb6,0xc0,0x17,0xc7,0xef,0x3e,0x20,0xa1,0x69,0xc1,0x6b,0xd4,0xca,0x3f,0xf6,0x5a,0x5b,0x3f,0xfe,0x4d,0x34,0x3d,0x35,0xd5,0x63,0xc0,0x46,0xef,0x8f,0x3f,0xa9,0xe9,0xaa,0x40,0x53,0x8,0x86,0xbf,0xa7,0xba,0x6a,0xbe,0x77,0x26,0x91,0xc0,0xc6,0x88,0x10,0x3f,0x4b,0xeb,0xe9,0xbf,0xf2,0xc9,0x6c,0xc0,0x40,0xa2,0x5a,0x40,0xb,0x6e,0xfd,0x3f,0x5c,0xde,0xed,0xbf,0x4,0x17,0x8c,0xbf,0x38,0x27,0x55,0x40,0xa2,0x33,0x77,0x3f,0x0,0xc3,0x6e,0xbc,0xc,0xe8,0xf,0x3f,0x2d,0x3a,0xb2,0x3f,0xa1,0x53,0x4f,0x3e,0xfd,0x55,0x31,0xbf,0x28,0xe0,0x50,0xc0,0x9c,0xef,0x88,0xc0,0xfd,0x58,0x85,0x40,0xce,0x3a,0x7a,0xbf,0xf4,0xf,0x33,0xc0,0x56,0xbb,0x22,0x40,0xb0,0x12,0xcf,0x3f,0xed,0x8c,0x82,0xbe,0xac,0xce,0x8e,0x3f,0x41,0x85,0x90,0xbf,0x1b,0x32,0xc4,0xbf,0x52,0x83,0x14,0x41,0xd2,0xe,0xe3,0x3f,0x8a,0x57,0x7d,0xc0,0x44,0xa3,0xa1,0x40,0xb5,0x2d,0x2,0x40,0xda,0x77,0x41,0x3f,0x18,0x73,0xc8,0x40,0x48,0x27,0x28,0x3e,0x4,0xe8,0x18,0x40,0xd6,0xaa,0x3e,0xbf,0x24,0x6f,0x91,0x3f,0x5f,0xc6,0x7b,0xbe,0xd1,0xe7,0x58,0xbf,0xe8,0x26,0x3e,0x3f,0x25,0xb6,0x2b,0x40,0x4e,0x16,0x32,0xc0,0xa8,0x73,0xb0,0xbf,0x58,0x12,0x6d,0xbd,0x44,0x9c,0x7c,0x40,0x9c,0xa3,0x5b,0xbe,0x0,0x92,0x23,0xc0,0x6e,0x51,0x8,0xc0,0x4,0x5e,0x1,0x40,0xea,0x47,0xe9,0x3e,0x49,0x47,0xce,0x3f,0x50,0xcb,0xf9,0xbe,0x4e,0xef,0xff,0xff,0x4,0x0,0x0,0x0,0x3c,0xf,0x0,0x0,0x67,0x25,0x64,0xbf,0xf5,0x44,0x21,0x3e,0x49,0x79,0x89,0x3d,0x4b,0x70,0x92,0x3e,0x72,0x80,0x91,0x3e,0xc1,0x72,0xd8,0xbf,0xe5,0xcb,0xb6,0x3f,0x71,0x51,0x15,0x3e,0x40,0xc8,0xda,0x3e,0xcf,0x8d,0x7e,0x3e,0x73,0xa1,0x21,0xc0,0xe0,0x6a,0x7c,0xbf,0x3,0xb4,0xd4,0x3c,0xfc,0x5d,0x2f,0xbf,0x56,0xf5,0x12,0xbe,0x8b,0xda,0xcb,0xbd,0x18,0xf8,0x5f,0xbd,0xc,0x6e,0x44,0xbe,0xb9,0xae,0xb1,0xbe,0x98,0x86,0x4,0xbf,0xb9,0x18,0xe5,0x3f,0x5d,0x46,0x60,0xbe,0x9f,0x7e,0x19,0xbe,0x80,0x62,0xc3,0x3c,0x6,0x52,0x88,0xbe,0x82,0x46,0x94,0x3f,0xf0,0x25,0x3d,0xbe,0xb,0xdf,0xe4,0x3e,0x4d,0xe9,0x28,0x3e,0x29,0xf9,0x23,0x3e,0x8c,0x83,0x42,0xbf,0x47,0xc7,0x3,0xc0,0x9a,0xc4,0x8b,0x3c,0x8e,0x7d,0x6a,0x3f,0xa6,0xd3,0x8d,0xbe,0xb,0xc7,0xdd,0x3f,0x15,0xe,0xb0,0xbf,0x54,0x9,0x3a,0x3f,0x3e,0xb2,0x14,0x40,0x59,0xf6,0x8d,0x3f,0xe0,0x5d,0x2a,0x3e,0xa4,0x21,0x2c,0xc0,0xf0,0xf3,0x23,0xbf,0x48,0xa5,0x67,0xbe,0x5d,0x5e,0xeb,0xbe,0xa9,0x9a,0x60,0x3e,0x8a,0xfe,0xe6,0x3e,0x1b,0x3b,0x1f,0xbe,0x76,0xd0,0x2a,0xbe,0x96,0x28,0x98,0x3d,0x21,0x84,0x82,0xbf,0x5f,0x73,0xad,0x3e,0xb2,0x60,0x42,0xbd,0xc2,0xe9,0x2e,0xbf,0xb0,0xdb,0x57,0xbd,0xd5,0x4c,0x8c,0xbe,0x3a,0xbe,0x8c,0x3f,0x93,0xf9,0x88,0xbe,0x27,0xb9,0x10,0x3f,0x71,0x9d,0xa7,0x3d,0x57,0x71,0x3,0xbd,0x82,0xda,0x82,0xbe,0xbc,0xfe,0x11,0xbd,0xa5,0x70,0xff,0xbe,0xe6,0xfa,0x31,0x3e,0x0,0x1e,0x16,0x40,0x51,0xc9,0x22,0xbf,0xa8,0x38,0x45,0xbf,0xa5,0x3,0x1,0xbf,0x34,0xeb,0x85,0xbe,0x3e,0x93,0xf9,0x3f,0x5d,0x4a,0x93,0x3f,0x24,0x13,0x7d,0xbe,0xd4,0xe4,0x45,0x3f,0x9f,0x6e,0xe3,0x3e,0x3,0xbc,0x2,0xbe,0x5c,0x1c,0x0,0xbe,0xac,0xb,0x52,0xbe,0xe5,0xed,0xba,0xbe,0xe9,0xa7,0x9,0xbf,0x8,0x4,0x13,0x3f,0x92,0x2d,0x54,0xbe,0x29,0x53,0x52,0xbe,0x62,0x1a,0xa5,0x3d,0x1b,0x52,0xa9,0xbe,0x6b,0x32,0xd6,0x3d,0x92,0x45,0xe6,0xbc,0x84,0x5d,0x24,0xbe,0xda,0xd3,0x9,0x3d,0xe4,0xfc,0x9a,0xbe,0x39,0x8,0x37,0x3d,0xe,0x4b,0x2b,0xbe,0xc4,0x79,0x8c,0xbe,0x98,0xa,0x99,0xbd,0xe3,0x24,0xad,0x3e,0xf2,0xde,0xaf,0xbd,0xb2,0xc7,0x7a,0x3e,0xef,0xd2,0x29,0xbe,0x13,0x7a,0x82,0xbe,0xe8,0x84,0xab,0x3c,0xc4,0x30,0x1e,0xbf,0xfc,0x32,0x28,0x3e,0x81,0x25,0xa2,0xbc,0x90,0xb4,0x4c,0xbe,0x90,0xa1,0x49,0xbe,0x3f,0xc5,0x8a,0xbe,0x40,0xbd,0xf5,0x3d,0xfd,0x3e,0x96,0x3d,0x8d,0x18,0x87,0x3d,0xc0,0xc2,0x80,0xbe,0xcc,0x73,0xf5,0x3c,0xb2,0x95,0x8d,0xbd,0xab,0xa0,0x59,0xbe,0x57,0xa6,0x82,0x3c,0xc5,0x80,0xfe,0xbd,0x80,0xfe,0xec,0xbd,0xfd,0x5b,0xd,0x3c,0xa0,0xd7,0x11,0x3e,0x8b,0xd3,0x34,0xbe,0x2b,0x98,0x59,0xbe,0x77,0x45,0xe8,0x3e,0x30,0xe5,0x25,0x3f,0xd6,0x3b,0xee,0x3d,0x27,0xa3,0x15,0x3f,0x9,0xa1,0xff,0xbc,0x3e,0xf8,0x58,0xc0,0xd0,0xc1,0x55,0x3f,0x3a,0xc9,0x9b,0x3f,0x62,0x85,0xfa,0x3e,0xfb,0x12,0xfa,0x3e,0xac,0xee,0x40,0xc0,0x55,0x95,0xb3,0xbe,0x68,0x92,0x71,0x3e,0x67,0x7,0xff,0xbc,0xf6,0x9d,0x13,0xbf,0xef,0xf8,0x19,0x3f,0x8f,0xb5,0xfb,0xbe,0x53,0xb6,0xa4,0x3c,0x7,0x16,0xbc,0xbe,0x56,0x9,0x5b,0xbf,0x6c,0x93,0x97,0x3f,0x14,0xda,0x93,0xbe,0x54,0x71,0xe1,0x3e,0x51,0xb7,0x8,0x3f,0xc5,0x73,0x26,0xbf,0x23,0xf,0xd,0x3f,0xe7,0x2e,0x15,0xbe,0x3e,0x5b,0xf4,0xbe,0x5c,0x58,0x26,0x3f,0x62,0xac,0xc4,0xbe,0x36,0xd7,0xc9,0xbd,0x3d,0x43,0x6d,0xbf,0x30,0x54,0xf5,0x3c,0x68,0x7f,0xed,0xbe,0xbf,0x6a,0x95,0xbd,0x3e,0xe7,0x71,0x40,0x68,0x14,0x94,0xbf,0x6e,0xed,0x2c,0xbf,0xf5,0x8,0x91,0xbe,0x59,0x52,0xc1,0xbe,0xdc,0x61,0x24,0x40,0xe,0x83,0x1d,0x3f,0xf7,0xd4,0x59,0xbe,0xa7,0xcb,0x57,0x3f,0x19,0x75,0x3c,0x3f,0x25,0x2c,0x51,0x3f,0x28,0xc6,0x85,0x3e,0x63,0x1f,0xf5,0xbd,0x75,0x34,0xaf,0xbe,0x8f,0xeb,0x36,0x3e,0x5e,0xf1,0xe,0x40,0x98,0xa,0x7a,0xbe,0xa1,0x82,0x76,0xbf,0x7,0x29,0x5a,0xbf,0xc6,0xa6,0xfd,0xbe,0x8a,0xaa,0xa1,0x3f,0x9a,0xb0,0x9b,0x3f,0xd5,0xf7,0xd8,0xbe,0x88,0xab,0xb5,0x3e,0x22,0xbb,0xa1,0x3e,0x56,0xba,0x22,0x3e,0x29,0xc7,0xc0,0x3d,0x3a,0x8e,0xbd,0x3d,0x7e,0x90,0x99,0xbe,0x9f,0x3e,0x10,0x3e,0xc4,0x1e,0xe5,0x3c,0x1f,0xa1,0xea,0xbd,0x2d,0xd2,0x8e,0xbe,0x53,0x22,0x15,0x3e,0xa5,0xbe,0xf1,0xbd,0xc3,0xcf,0x90,0xbd,0xb1,0xa2,0xfc,0x3d,0xa6,0x29,0x24,0xbd,0x63,0x41,0x89,0xbe,0xcb,0xae,0x75,0xbe,0x85,0x2d,0x4b,0x3f,0xa4,0x66,0xc9,0x3f,0x3d,0x7e,0x86,0xbd,0x73,0xc3,0xe,0x3f,0x87,0x50,0x6b,0xbd,0x26,0xd2,0x97,0xc0,0xc4,0x40,0x9e,0x3f,0xae,0x7b,0x6a,0x3f,0x78,0x49,0x8f,0x3e,0x60,0xc,0xe8,0x3e,0x74,0x13,0x3f,0xc0,0x15,0xa1,0xb2,0xbe,0x0,0x70,0x62,0x3e,0xdd,0x35,0x6f,0xbf,0x8d,0xdb,0x3f,0xbf,0x53,0xdf,0x14,0x3f,0xdb,0xfc,0x3c,0x3f,0x1f,0x74,0xa8,0x3e,0x76,0x5c,0xe4,0xbe,0xc0,0xa2,0x10,0xbf,0xa6,0x67,0xed,0xbe,0x77,0xb,0x91,0xbe,0xa8,0x6b,0x59,0xbf,0x5,0xa0,0x52,0xbf,0x4e,0x36,0x5e,0x3d,0x7a,0x62,0x52,0xbe,0x84,0x64,0x85,0x3e,0x7b,0x23,0xe7,0xbe,0xcc,0x23,0x69,0xbf,0x2,0xe7,0x51,0x3f,0xd9,0xe5,0x72,0x3e,0xe9,0xb4,0xd,0x3f,0xbd,0xfa,0x8a,0x3e,0xfe,0x7,0x92,0x3d,0x27,0x49,0xa2,0x3e,0x4b,0xfe,0xa7,0xbf,0xf7,0x5b,0x6d,0x3e,0xb0,0x31,0xfc,0x3d,0x97,0xb6,0x75,0xbf,0x9,0x55,0x78,0x3e,0x9a,0x3c,0x97,0xbf,0xfe,0x7f,0x8c,0xbe,0xbe,0x6,0x73,0x3b,0x12,0x38,0x98,0xbf,0xdd,0xd8,0x36,0x3e,0xad,0x5b,0x55,0xc0,0x1e,0x13,0x2d,0xc0,0x7a,0x1f,0x87,0xbe,0x6a,0x40,0x3d,0x3f,0x5a,0x1d,0x85,0xbe,0x89,0x8b,0xa2,0x3f,0xda,0x75,0xe9,0xbe,0x8b,0x94,0xc6,0x3f,0xd3,0xab,0x1e,0x40,0x5a,0xd8,0x94,0x3f,0x26,0x61,0xa8,0x3d,0xc7,0x98,0x59,0xc0,0x8e,0xec,0x9a,0x3e,0xd1,0x82,0xa9,0x3e,0x83,0x22,0xa0,0xbd,0x8e,0xe0,0x25,0x3f,0x5d,0x95,0x89,0x3f,0x98,0x1b,0xb4,0x3d,0x73,0x8e,0x9,0x3f,0x23,0x6f,0x83,0xbe,0x10,0x84,0x59,0xc0,0x81,0xa7,0x45,0xbd,0x90,0x7a,0xad,0x3f,0x3f,0xb8,0x26,0x3f,0xc5,0xef,0xb6,0x3e,0x49,0xf8,0xb0,0xbf,0xde,0x68,0x3,0xbf,0xbe,0x55,0x25,0xbe,0xc2,0x1b,0xfb,0xbe,0xfe,0xfe,0xfb,0xbe,0x47,0x8d,0x1e,0x3f,0xa5,0x85,0x7c,0x3f,0x70,0x11,0xe8,0xbd,0x76,0x17,0xe3,0xbe,0x21,0x9c,0x19,0x3f,0xfa,0x15,0x21,0xbe,0xce,0xcd,0xc1,0xbc,0x6f,0xee,0x4b,0xbf,0x65,0xaf,0xd7,0xbf,0xc9,0x37,0x28,0xbf,0x82,0x1d,0xc4,0xbc,0x74,0xea,0x91,0x3f,0x21,0xef,0x67,0xbe,0xc1,0xd7,0xa9,0xbc,0xf1,0x72,0x7e,0x3e,0xae,0x69,0xd,0x3f,0xc0,0xf1,0x20,0x3f,0x8a,0x15,0xe8,0xbd,0x90,0x9,0x4a,0x3e,0x7d,0x69,0x38,0x3f,0x44,0xfb,0x31,0xbf,0x8,0xbd,0x2e,0x3e,0x64,0x10,0xc6,0xbe,0x13,0x63,0x75,0xbe,0x72,0xa6,0xb4,0xbd,0x20,0x4a,0x9a,0xbf,0x31,0x11,0x36,0xbe,0xad,0x86,0x54,0x3f,0x73,0xc8,0x4d,0xbf,0xef,0x1e,0xc7,0x3c,0x90,0x79,0x83,0x3f,0xb8,0x22,0xe2,0x3e,0x56,0x99,0x44,0xbd,0x3b,0xe1,0xaf,0xbe,0xdb,0xaa,0x60,0x3e,0x46,0x7,0xe8,0x3f,0xd0,0xeb,0xb9,0xbe,0xdc,0x5f,0x53,0xbf,0xe9,0x42,0x53,0xbf,0x69,0x75,0xa3,0xbe,0xb2,0x72,0xd2,0x3f,0xd2,0xbd,0x71,0x3f,0x7c,0x40,0x32,0x3c,0x35,0x75,0x2a,0x3e,0x8d,0x37,0x4,0x3f,0xbb,0xaa,0x36,0x3f,0x7e,0xa8,0x90,0x3f,0x53,0xfd,0x5,0x3f,0xb2,0x68,0x98,0x3e,0xf,0x1c,0x88,0x3d,0x9a,0x8f,0x62,0xc0,0x29,0x97,0x9c,0x3e,0xa0,0x7b,0x17,0xbe,0xe3,0x4c,0x3f,0xbf,0x2b,0xcf,0x84,0x3e,0x49,0x79,0x30,0xc0,0x1d,0x74,0x98,0x3c,0x23,0x27,0x2e,0xbf,0x37,0x24,0xa4,0xbf,0x67,0xe8,0xa2,0xbe,0x47,0x31,0x34,0xbf,0x26,0xe8,0x7c,0xbf,0x7b,0x43,0x2,0xbf,0xfb,0x6f,0x42,0xbd,0xa6,0x51,0xf5,0x3e,0xb4,0x41,0x82,0xbe,0xee,0x6b,0x81,0xbd,0x9e,0xf0,0x2d,0xbd,0x71,0x67,0x13,0x3f,0xdb,0x6c,0xc2,0x3d,0x8f,0xde,0x8c,0xbe,0x73,0x4d,0x19,0x3f,0xb9,0x13,0xd1,0x3d,0x24,0x93,0xa7,0x3f,0x4d,0x74,0xde,0xbd,0x93,0x90,0x3,0xbe,0x3c,0xbb,0xb7,0x3d,0x7c,0x79,0x9c,0xbd,0xc4,0xf2,0x53,0xbd,0x60,0x9d,0x1b,0xbd,0xb2,0xa4,0x60,0x3e,0xe6,0x3e,0x5d,0xbe,0x6c,0x27,0xf1,0x3d,0x0,0x63,0x18,0xbc,0xe3,0xab,0x8,0xbe,0x3a,0x76,0x30,0xbe,0x68,0x2d,0x9e,0xbd,0x8d,0x1a,0x8a,0xbe,0x18,0xf3,0x13,0x3d,0xa,0x6b,0x72,0xbe,0xf5,0x96,0x21,0x3f,0x44,0xec,0x37,0x3f,0x28,0x2e,0xb2,0xbd,0x20,0x1f,0xa1,0xbd,0x86,0x88,0x43,0xbe,0xe2,0x5a,0x44,0xbf,0x32,0x21,0x4e,0xbe,0xba,0xff,0x88,0xbf,0x8a,0xa1,0x2f,0xbf,0x41,0x9c,0x31,0x3d,0x3,0xdc,0xc9,0xbe,0x0,0xec,0xe,0x3f,0x2f,0x8d,0x68,0xbe,0x5b,0xe5,0x10,0x3d,0xcd,0x8a,0x32,0xbe,0x73,0x16,0xe,0x3e,0x86,0x7a,0x6b,0xbd,0xe7,0x6b,0xcd,0x3d,0x53,0x1f,0x86,0x3e,0x45,0x11,0x4,0x3f,0x47,0x78,0x5b,0xbf,0xa7,0xac,0x22,0x3f,0x15,0x6c,0x36,0x3d,0x63,0x6c,0xe,0xbe,0xd8,0xbf,0xe7,0x3b,0xe8,0xbe,0x7c,0xbf,0x32,0x73,0x3d,0x3f,0xf3,0x8d,0x90,0xbe,0x1e,0x1d,0x2a,0x3d,0x56,0xf3,0xa0,0x3d,0xea,0x64,0x0,0xbe,0x9d,0x8e,0x25,0xbe,0x4e,0x97,0x43,0x3e,0x78,0x35,0xbd,0x3d,0x6a,0x8,0x73,0xbe,0x62,0x8e,0x78,0x3b,0x2e,0x49,0x69,0xbe,0x2,0x90,0x8c,0xbe,0x38,0x66,0x33,0x3e,0x60,0x57,0x76,0xbe,0xeb,0xd3,0x8e,0x3d,0xaf,0x9d,0x27,0xbe,0x5e,0xdb,0x89,0xbd,0x60,0xee,0x70,0xbe,0xbe,0x6d,0x82,0xbe,0xa5,0xc4,0x36,0x3e,0xbf,0x25,0xe8,0x3e,0xff,0x90,0x83,0xbe,0x79,0x73,0x85,0xbf,0x42,0x96,0xa1,0x3f,0x99,0x17,0x35,0x3f,0x3,0x23,0xf1,0xbe,0xfa,0xd6,0x4d,0xbf,0xe4,0x9c,0xb,0xc0,0xfb,0x99,0x6b,0xbf,0xbb,0x4f,0x88,0x3f,0x4,0x74,0x27,0x3f,0x61,0x9,0x5f,0x3d,0x4c,0x4d,0x56,0xbf,0x91,0x6f,0xd1,0xbc,0x18,0x3,0x44,0xc0,0xd1,0x6d,0x2b,0xc0,0xe,0xb2,0x96,0xbe,0xf7,0x79,0x16,0x3f,0x1,0x6d,0x44,0xbe,0xd,0xe8,0x90,0x3f,0xdf,0xa5,0x1d,0xbf,0x9,0x4c,0xc9,0x3f,0xb1,0x95,0x17,0x40,0xf4,0x8e,0xa0,0x3f,0x76,0xc4,0xd,0x3e,0x9d,0xb0,0x4e,0xc0,0x4a,0x91,0xaa,0x3e,0xe9,0x15,0xb9,0x3e,0x93,0x79,0x41,0xbe,0xfd,0x75,0xd0,0x3e,0x69,0xc5,0x26,0x3f,0xc7,0xf4,0x68,0x3e,0x9d,0x44,0x2c,0x3e,0x64,0x18,0x2f,0xbb,0xf3,0x87,0xab,0xbf,0x7c,0x3d,0x26,0xbc,0xdd,0x8b,0x7,0xbf,0x6a,0xcc,0xa4,0xbe,0x63,0x91,0x1f,0x3e,0xb3,0xcf,0x98,0xbf,0x18,0x5d,0x88,0x3e,0x36,0xae,0xde,0xbe,0xb8,0xa0,0x1d,0xbf,0x9c,0x92,0xb9,0xbc,0xbf,0x27,0xee,0xbe,0xd4,0x56,0x87,0xbd,0x95,0xf7,0x58,0xbd,0x48,0xe9,0xb8,0xbe,0x47,0xe5,0xf1,0x3d,0x9c,0xc1,0x2c,0x3f,0xcf,0xfb,0xdf,0xbe,0x26,0x36,0xc6,0xbe,0xdb,0x2f,0x8b,0xbe,0x46,0x8a,0xe6,0xbb,0xa0,0x7,0xa4,0x3f,0xea,0xe0,0xae,0x3e,0xf7,0xda,0x5,0x3f,0x88,0xdb,0xe8,0x3e,0xe9,0x71,0x95,0xbc,0xe3,0xc4,0x8f,0xbf,0x42,0x56,0xab,0xbf,0xa0,0xde,0x80,0xbd,0x4f,0xae,0x48,0xbd,0xe6,0x86,0x9,0x3f,0x72,0xd5,0x7d,0x3f,0x4c,0x42,0x12,0xbe,0xfa,0xb0,0xa,0xbf,0xd2,0x11,0x82,0xbe,0x3,0x5,0x38,0x3c,0xe5,0x88,0x4d,0xbf,0x6b,0x50,0x56,0x3f,0xe5,0xef,0x88,0xbd,0x2c,0xc6,0x8e,0x3e,0x29,0xd8,0x14,0x3f,0xeb,0x11,0xf9,0xbd,0x34,0x12,0x1c,0x3f,0x84,0x9a,0xd2,0xbd,0x39,0xff,0xeb,0x3e,0x70,0x37,0xd5,0x3d,0x21,0x36,0x69,0xc0,0x8d,0x5b,0x6b,0x3f,0xc0,0xb4,0x24,0x3f,0x29,0x14,0xaa,0x3e,0x33,0xfc,0x20,0x3f,0xbf,0x6d,0x1,0xc0,0xdb,0x12,0xba,0xbe,0x2b,0xff,0xac,0xbe,0x81,0xa7,0x19,0xbf,0x41,0xe8,0xe8,0xbe,0xa7,0x6e,0xbd,0x3e,0x76,0x99,0xe5,0x3c,0xfe,0x72,0x85,0x3c,0xdd,0x25,0x84,0x3e,0x71,0xa6,0x10,0x3f,0x7b,0xfa,0xd6,0xbf,0xbf,0xd6,0x4a,0x3f,0x8d,0x83,0xef,0x3d,0x48,0x60,0x80,0x3d,0xe9,0x40,0xbd,0x3e,0x7e,0x59,0xb7,0xbf,0xbb,0x37,0x4f,0x3f,0x1c,0xa2,0x52,0xbe,0x50,0xeb,0x8f,0xbe,0xb9,0xab,0xab,0x3d,0x7e,0x75,0xef,0x3e,0x73,0x15,0x19,0x3f,0x15,0xdb,0xad,0x3d,0x9c,0xe7,0x6,0x3f,0x57,0xe3,0x75,0xbe,0xe1,0x93,0xce,0xbf,0x1d,0x6a,0x3a,0xbf,0x13,0x14,0x79,0x3f,0x8d,0xba,0x48,0x3f,0x73,0x0,0x8,0x3f,0xc5,0xcb,0x9f,0xbe,0x81,0xf4,0x74,0xbf,0x66,0xb5,0x94,0xbd,0x38,0x6e,0x26,0xbf,0xdf,0xc3,0x8f,0xbe,0x37,0x5b,0x67,0x3d,0xb7,0x8e,0x81,0xbe,0xbc,0xa5,0x65,0xbe,0xab,0xbb,0x83,0xbe,0x1d,0x1e,0x7,0x3e,0xe0,0xcd,0x10,0x3e,0x7c,0xd4,0x5,0xbe,0xd2,0x49,0x5e,0x3e,0xce,0xae,0x41,0x3d,0x95,0x15,0x80,0xbe,0x97,0xcc,0x10,0x3e,0xce,0xd,0xd5,0xbd,0x17,0x7f,0x7e,0xbe,0x8d,0x1a,0x0,0xbd,0x4a,0x35,0x86,0xbe,0xd8,0xcb,0x10,0xbf,0x96,0xb1,0x5,0x3e,0x1f,0x30,0x6f,0xbe,0xb6,0xb7,0x5a,0xbe,0xc3,0xf1,0x13,0xbd,0xbc,0xf5,0xc,0x3e,0x1,0x6,0x16,0x3f,0x5c,0xca,0x9f,0xbe,0x84,0x27,0x8f,0xbd,0xaf,0xd6,0x3b,0xbd,0xf6,0xf1,0xf0,0xbe,0xa,0x91,0x39,0xbe,0xe0,0xf5,0x27,0xbe,0xe,0x50,0xb6,0x3e,0x58,0xf2,0x55,0xbe,0xf9,0x5d,0x84,0xbc,0x16,0xdc,0x34,0xbf,0x5e,0x3,0xac,0xbe,0x55,0x7c,0x1,0xbf,0xb7,0xf6,0x32,0x3e,0x58,0xc6,0xba,0x3d,0x51,0xfa,0x6f,0xbe,0xee,0x89,0xba,0xbe,0xf6,0x53,0xba,0x3e,0x96,0x0,0xa,0x3d,0xe5,0xd1,0x90,0x3f,0xa5,0x59,0x36,0xbe,0xb9,0x1,0xd1,0xbe,0xa5,0x8c,0x3a,0x3f,0x2d,0x50,0x44,0xbb,0xa3,0xb4,0xe7,0x3e,0x58,0xd7,0xfa,0x3d,0x7e,0x74,0x39,0xbd,0xd8,0x42,0x74,0x3f,0x26,0x6e,0xb,0xbe,0xc,0xe8,0x16,0xc0,0xbd,0x89,0xba,0xbe,0x48,0xba,0x76,0x3f,0x70,0x61,0xdc,0x3e,0x9f,0xa3,0xe7,0x3c,0xcc,0xf3,0x87,0xbf,0x25,0xc6,0xe5,0xbe,0x20,0x98,0x8a,0xbe,0x32,0x2e,0xee,0x3e,0x14,0xe4,0xec,0xbd,0x49,0xc5,0x5b,0xc0,0xc3,0xfc,0x68,0xc0,0x7e,0xe4,0x98,0xbe,0x2a,0x79,0xb8,0x3f,0x12,0xd0,0x29,0xbf,0xc5,0x3a,0x0,0x3f,0xd6,0x70,0x9d,0xbf,0x78,0xd9,0x16,0x40,0xf3,0x5c,0x81,0x40,0x5c,0xcb,0x11,0x40,0x94,0xf5,0x63,0xbf,0x77,0xe7,0xaa,0xc0,0x56,0xab,0xad,0x3d,0x29,0x8,0xd4,0x3d,0xf8,0x15,0x49,0xbf,0xaa,0xb6,0x2,0x3f,0xaf,0x11,0x9,0x3f,0x68,0x97,0x80,0xbb,0xa8,0x62,0xe4,0x3e,0x64,0xdb,0xa9,0x3d,0x3f,0xcf,0x5,0xc0,0x94,0x5f,0x62,0x3f,0x27,0x8b,0xac,0x3e,0xd2,0xee,0x8d,0x3e,0x1,0x74,0xc3,0x3e,0x18,0x9c,0x99,0xbf,0x44,0x33,0xb4,0x3e,0x7c,0x3b,0x64,0x3c,0x76,0x12,0x6b,0xbe,0xd4,0xd5,0xe,0xbe,0x9d,0x2b,0x22,0xc0,0x3a,0x5d,0x33,0xc0,0x55,0xe9,0xa2,0xbe,0x8a,0xb3,0xc3,0x3e,0x1e,0xf7,0xf8,0xbe,0x24,0xd5,0x9c,0x3f,0x1,0x4f,0x57,0xbf,0x94,0x4a,0xb2,0x3f,0xb6,0x4c,0x1a,0x40,0xa6,0x8c,0xa8,0x3f,0xda,0xf6,0x17,0xbe,0x86,0x39,0x35,0xc0,0x3,0x32,0xf3,0x3e,0x47,0x9c,0x1a,0x3f,0xf1,0x5d,0xd,0xbe,0xe6,0x7,0x15,0xbe,0x51,0x89,0x9,0xbf,0x81,0x5a,0x9e,0xbd,0x6e,0xaf,0xf,0xbf,0x4e,0x74,0xb2,0x3d,0x3b,0xef,0x78,0x40,0x1c,0xb5,0x5f,0xbf,0xab,0x3d,0x8e,0xbf,0x47,0x65,0xcf,0xbe,0x2e,0x9f,0xe2,0xbe,0x77,0xbe,0x36,0x40,0x4a,0x69,0x65,0x3f,0x84,0x9e,0x39,0xbe,0xa0,0x6,0x2b,0x3f,0xd0,0x67,0x9,0x3f,0x52,0x22,0x9b,0xbe,0xa1,0x30,0xce,0xbd,0x15,0x5,0x43,0x3d,0x3c,0x3b,0xe2,0xbd,0xf9,0x40,0x25,0xbf,0x93,0x29,0xc4,0x3f,0x5d,0x7,0xb8,0xbe,0x9b,0x9e,0xb3,0x3c,0x71,0xd6,0xfa,0x3e,0x5c,0x3e,0x8a,0xbb,0x9d,0xa2,0x9c,0x3f,0xb3,0xb2,0x9f,0xbe,0xe1,0x86,0xa6,0x3e,0x92,0x58,0xc4,0x3e,0xcf,0xd2,0x84,0xbd,0x89,0x51,0x2e,0x3f,0x82,0x97,0x24,0x3f,0x95,0x4,0x94,0xbe,0x87,0xb3,0x6c,0xbe,0x29,0x34,0xf5,0x3e,0xc1,0xf0,0x9a,0xbf,0x38,0x52,0x3b,0x3f,0xae,0xc,0x5b,0x3d,0x2b,0xa5,0x31,0xbf,0xab,0xa5,0x55,0xbd,0x1,0xd8,0x37,0xbf,0xac,0x48,0x9e,0x3f,0x2e,0x10,0x2d,0x3d,0xbf,0x54,0xe3,0x3e,0xab,0x72,0xf7,0x3d,0x21,0x98,0x84,0x3f,0xed,0x52,0xb6,0x3f,0x1b,0x20,0x1b,0x3e,0x67,0x88,0xf0,0x3e,0x62,0xa2,0xa,0xbe,0x3c,0xbc,0x0,0xc0,0xe4,0xc7,0xee,0x3e,0x7e,0xa2,0xd2,0xbd,0xf7,0x6d,0x15,0xbf,0x63,0x3,0x14,0x3e,0x8e,0x5e,0xc0,0xbf,0x69,0x6b,0xc,0x3e,0x39,0x71,0xe6,0x3d,0xcc,0x88,0x22,0xbf,0x30,0x6b,0xc7,0xbe,0xdb,0x41,0xef,0x3c,0xf8,0x7,0x7f,0x3e,0xc3,0xf2,0x76,0xbe,0xe1,0x74,0x73,0x3e,0x6c,0x3e,0x2,0x3e,0x4e,0x7a,0x79,0xbe,0x5c,0x2c,0x1d,0x3d,0x5,0x8,0x83,0xbd,0x80,0x45,0x6a,0xbd,0xb8,0x90,0x81,0xbe,0x3a,0xb3,0x82,0x3d,0xdd,0x36,0x4d,0xbe,0xfc,0xca,0x8e,0xbe,0x2b,0x57,0x22,0xbe,0xfa,0x95,0x2c,0xbe,0x93,0xc9,0x1f,0x3f,0xa6,0x63,0x7,0xbd,0xeb,0xdc,0x79,0x3e,0x51,0x6e,0x26,0x3f,0x54,0xd5,0x46,0xbf,0x8d,0xca,0x3,0xc0,0x78,0xe4,0xbf,0xbe,0xf,0x3e,0xa3,0x3f,0x68,0x92,0x43,0x3f,0x5a,0x38,0x38,0x3e,0xd9,0xfc,0x33,0xbf,0x3d,0x14,0xb1,0xbf,0xb6,0xeb,0xc9,0x3e,0x5b,0xb9,0x78,0xbf,0xbf,0x62,0x21,0xbe,0xa4,0x70,0x99,0xbd,0xa3,0x42,0x0,0xbf,0x32,0x4c,0x92,0xbe,0x6a,0x92,0x11,0xbe,0xfb,0x48,0xd7,0x3e,0xc1,0x56,0x60,0xc0,0x26,0x1f,0x4e,0x3f,0xde,0xb7,0x1d,0xbe,0x16,0x5e,0x2,0xc1,0x2f,0xf,0x6f,0x3d,0xde,0x17,0x54,0x3f,0xaa,0x3c,0x95,0xbd,0x1c,0xe6,0x94,0xbf,0x13,0xa1,0x5e,0xbf,0xd7,0x80,0xf0,0x3d,0x1a,0x81,0x94,0xbe,0x7a,0x20,0x3d,0xbe,0x32,0xf1,0x5,0x3e,0xca,0xee,0xf,0xbe,0x8e,0x10,0x2b,0xbf,0xe6,0x59,0x43,0x3f,0x3a,0xcc,0x14,0xbf,0x16,0xd6,0x94,0x3e,0x57,0x52,0x57,0x3d,0x2b,0xcb,0x88,0xbe,0x2a,0x13,0x46,0x3f,0xf3,0xde,0xf,0xbf,0x59,0xaa,0xc1,0x3d,0x81,0x87,0x14,0x3d,0xa,0x90,0xe8,0xbd,0xc3,0xe5,0x17,0x3f,0x41,0xd5,0xbe,0x3d,0xb3,0x79,0x8f,0xbe,0x19,0x8b,0xc,0xbf,0x6b,0xc3,0x4f,0x3e,0x12,0x2e,0xb5,0x3f,0xca,0x53,0xbe,0xbe,0x3c,0xec,0x50,0xbf,0x12,0xc4,0x27,0xbf,0xb5,0xe8,0xec,0xbe,0xd2,0x50,0x62,0x3f,0x3b,0x4,0x88,0x3f,0x8c,0xcb,0x6d,0xbe,0x89,0xe2,0x15,0x3f,0x57,0xc,0xc0,0x3e,0x43,0xc3,0x4,0x3f,0x43,0x9b,0x81,0xbe,0x5f,0x9c,0x9d,0x3e,0xe9,0x22,0x2a,0x3e,0x1,0xe1,0x9a,0xbe,0x17,0xd7,0x1b,0x40,0x33,0x2a,0xf4,0xbe,0xf6,0x64,0x14,0xbe,0x87,0x8b,0x33,0x3f,0xec,0x74,0xf0,0xbe,0xeb,0xfc,0xb7,0x3f,0xae,0xb6,0x21,0xbf,0x1b,0x21,0x3b,0xbd,0x96,0x4e,0x37,0x3c,0x76,0xe2,0xaa,0x3e,0xb0,0xb8,0x9e,0xbf,0x8f,0x9,0x52,0xbf,0x8a,0xfa,0x8d,0xbe,0xdb,0x9f,0x65,0xbc,0xb9,0xd3,0xae,0x3d,0x59,0xeb,0xa5,0x3e,0xbd,0x26,0x98,0xbe,0xdd,0x94,0xfb,0x3e,0xa7,0xd8,0x86,0x3e,0x22,0xdc,0x88,0x3e,0x1c,0x33,0xa1,0xbe,0xdb,0xc8,0x7c,0xbf,0x17,0x4c,0xfe,0x3d,0x1f,0x69,0x87,0x3e,0xb7,0xb9,0x10,0xbe,0x7b,0x75,0xe7,0x3e,0xa7,0x1e,0x4,0x3f,0x53,0xe3,0x5b,0xbe,0x8a,0xe3,0xff,0xbe,0xe5,0x81,0xb3,0x3e,0xb4,0xe9,0xc9,0x3f,0xbd,0x2c,0x6f,0xbe,0x6e,0x36,0xb0,0xbe,0x39,0x72,0x2b,0xbe,0xbe,0x3c,0xb3,0xbe,0x39,0x14,0x8a,0x3f,0x28,0x25,0x10,0x3f,0x8f,0x2e,0x48,0xbf,0x90,0xfb,0x50,0x3f,0xcd,0x6,0x7a,0xbe,0x95,0xe7,0x90,0x3e,0xbf,0x3d,0x1b,0x3f,0x56,0xb7,0x5a,0xbd,0xf9,0x6a,0xaa,0x3e,0x98,0xae,0x8c,0x3e,0x41,0x2e,0x58,0xc0,0x65,0xaa,0x4d,0x3f,0xbd,0x98,0x45,0x3f,0xb,0x32,0xe3,0x3d,0x9f,0x65,0x20,0x3e,0xce,0xc3,0x19,0xc0,0x77,0x44,0xb0,0xbe,0x6c,0x6b,0xbc,0x3e,0xed,0x5d,0x4f,0xbf,0xf1,0x81,0xea,0xbe,0x48,0xc7,0x3e,0x3f,0x6c,0xd2,0x4c,0x3e,0x11,0x2a,0x26,0x3d,0x15,0xe8,0x86,0xbe,0xe5,0x30,0xaf,0xbb,0x8b,0x4b,0x22,0x40,0x37,0x5b,0x32,0xbe,0xe6,0xd0,0x82,0xbf,0x89,0xe6,0x69,0xbf,0x41,0x16,0xed,0xbe,0x36,0xe5,0xb9,0x3f,0xc2,0xd,0x1b,0x3f,0x4c,0x4c,0x5,0x3e,0xa9,0xed,0x96,0x3e,0x1b,0xbe,0xf9,0x3e,0x5a,0x98,0x26,0xbe,0xe0,0x92,0x29,0x3c,0x13,0x49,0x10,0xbe,0xeb,0x70,0x83,0xbe,0x48,0x17,0xfb,0x3d,0x7e,0x2c,0x6c,0xbe,0xbd,0x2,0x4,0xbe,0x24,0xbb,0xcf,0xbd,0x29,0x8,0x76,0xbe,0xfc,0xe3,0x83,0xbd,0xfa,0x99,0x65,0x3e,0x48,0x10,0x77,0xbe,0xac,0x60,0x7b,0xbd,0xbc,0x26,0xcc,0x3d,0x68,0x1f,0x32,0x3d,0xba,0x57,0x34,0xbd,0xca,0xc6,0xea,0xbe,0xdc,0xef,0x80,0xba,0x48,0xc0,0x10,0xbf,0x74,0x65,0x21,0x3e,0x79,0x9b,0x44,0x40,0x50,0xb8,0x33,0xbf,0xf8,0x8,0x64,0xbf,0x90,0xd4,0x21,0xbf,0xb9,0xf0,0xf8,0xbe,0xe5,0x5,0x15,0x40,0x34,0xc0,0x60,0x3f,0xcb,0x94,0x19,0xbe,0x1f,0x50,0x92,0x3e,0xa0,0xc9,0x22,0x3f,0xfb,0xb5,0x3e,0x3f,0x59,0x29,0x9c,0x3e,0xc0,0x2f,0x2,0xbe,0xd,0x71,0xe8,0xbe,0x7b,0x77,0x12,0x3e,0x41,0xf2,0xa3,0x3f,0x57,0xf9,0x36,0xbe,0x1e,0xa7,0x63,0xbf,0x54,0x57,0x5a,0xbf,0x6f,0xc0,0x5,0xbf,0x9c,0xe4,0x85,0x3f,0xf1,0x93,0x86,0x3f,0x13,0x34,0x87,0xbe,0x62,0x40,0xc7,0x3d,0x68,0xa1,0x8c,0x3e,0x6f,0xd2,0x81,0x3e,0x5a,0x45,0xa7,0x3f,0xe3,0xd9,0x1f,0x3f,0x72,0x4a,0x75,0x3e,0x21,0xae,0x8,0xbe,0x19,0xc5,0x34,0xc0,0x3a,0x97,0x6b,0x3e,0x88,0xca,0x37,0xbe,0x95,0xd0,0x69,0xbf,0xfd,0x25,0x9e,0x3d,0x89,0x94,0xdf,0xbf,0x83,0xb,0xb2,0x3d,0x3d,0xb4,0x62,0xbf,0xf,0x52,0x45,0xbf,0xf,0x8e,0x9a,0xbe,0xf4,0x37,0xe3,0xbe,0xff,0x8b,0x17,0x3f,0x88,0x73,0x35,0x3f,0x22,0xdb,0x36,0x3f,0xb7,0xb4,0x64,0xbf,0x93,0xad,0xca,0xbf,0x86,0x3f,0x4f,0x3f,0xbd,0x7b,0x19,0x3e,0xb6,0xe3,0x14,0x3f,0xc7,0xb6,0x31,0x3f,0x5f,0x69,0xa0,0xbf,0xf2,0xa4,0x7d,0xbf,0xef,0x9c,0x2a,0xbf,0x9c,0xf1,0x98,0xbf,0xbf,0xbe,0x64,0x3e,0x3c,0x59,0xce,0x3e,0xed,0x79,0xde,0x3e,0x1d,0xa5,0xa5,0x3d,0x3b,0x19,0xea,0x3e,0x64,0x66,0x62,0xbd,0x19,0x57,0x1,0xc0,0x6c,0x55,0x3d,0x3f,0x7d,0xe4,0xf5,0x3e,0xed,0x1e,0x35,0x3e,0x7c,0x64,0xa0,0x3e,0x7b,0x98,0x9e,0xbf,0x10,0x71,0xf9,0x3e,0x5d,0xfd,0xa3,0xbd,0x6d,0x8a,0xba,0xbd,0xc6,0xb5,0x3d,0xbe,0xa8,0x95,0x89,0x3f,0xdd,0xb5,0x51,0x3f,0xdd,0xc4,0x5e,0x3e,0xe0,0x13,0x89,0x3e,0x5f,0xc6,0x2,0x3d,0x69,0x25,0x93,0xbf,0x88,0xe5,0x83,0xbd,0xe9,0xdb,0x8c,0xbf,0x73,0xc1,0x4,0xbf,0x85,0xa7,0xee,0xbd,0xa6,0xf5,0xd4,0xbd,0xcb,0x19,0xe9,0x3e,0xcb,0xae,0xc1,0xbd,0x7f,0x8b,0x17,0x3e,0x41,0x47,0x6f,0x3e,0x85,0xb3,0x1a,0x3e,0x32,0xa3,0xf5,0x3d,0x1c,0x15,0x86,0x3e,0x56,0x43,0xe3,0x3e,0x26,0xdc,0x98,0x3f,0xb,0xcb,0xd3,0xbf,0xee,0xbb,0x10,0xbe,0x85,0x0,0x9c,0x3c,0x51,0x46,0xc5,0xbe,0xd6,0xde,0x17,0x3f,0xa3,0x8e,0xe,0xbf,0x57,0x6a,0x1a,0xbf,0x46,0xb5,0xd9,0xbd,0xb1,0x62,0x9c,0xbe,0x2e,0x8f,0xf,0x3f,0xe5,0xf8,0xb2,0xbe,0xc0,0x19,0xe6,0xbe,0x89,0x6f,0x50,0xbe,0xa2,0xf0,0xab,0xbe,0x7b,0x4d,0x2c,0xbd,0xa3,0x28,0x5,0x40,0x25,0x7d,0x9d,0xbe,0x35,0xde,0x77,0xbe,0xa4,0x34,0x4b,0x3e,0xa5,0x15,0xd7,0xbe,0xe,0xd9,0x9e,0x3f,0xd5,0x7f,0xaf,0x3d,0xcc,0xcc,0x82,0xbc,0x1d,0x86,0xe4,0x3e,0x39,0xe9,0x58,0x3c,0x96,0xfe,0xff,0xff,0x4,0x0,0x0,0x0,0x8,0x0,0x0,0x0,0xff,0xff,0xff,0xff,0xf,0x0,0x0,0x0,0xaa,0xfe,0xff,0xff,0x4,0x0,0x0,0x0,0x8,0x0,0x0,0x0,0xba,0x4e,0xf4,0x3f,0xaa,0x14,0xa3,0x3f,0xbe,0xfe,0xff,0xff,0x4,0x0,0x0,0x0,0x4,0x1,0x0,0x0,0xbb,0x7,0xa3,0x40,0xec,0xc3,0xf8,0x3f,0xdf,0x10,0x2c,0x40,0xa8,0x71,0x3c,0x40,0x21,0x40,0xc4,0xc0,0x14,0xf1,0xb9,0x40,0xfc,0xc5,0x57,0x40,0x2c,0x88,0xc2,0xbb,0xbf,0xd7,0x4b,0x40,0x5d,0xcb,0x12,0x40,0x5,0x3,0x66,0xc0,0x9a,0xae,0x9,0x3f,0x96,0x6,0xe9,0xbc,0x71,0xba,0x80,0x40,0x6b,0x4,0x7f,0x3e,0xe8,0x37,0x80,0x3e,0xe9,0xf2,0x49,0x40,0x12,0x58,0x96,0x3f,0xd1,0x33,0x40,0x40,0xad,0x3d,0xef,0xbe,0x4a,0x57,0xaf,0xbf,0x14,0xb2,0xe9,0x3f,0xd8,0xf5,0x3b,0xbe,0x0,0x0,0x0,0x0,0x80,0x6a,0x38,0x40,0x2c,0x45,0x5e,0x40,0xb6,0xb5,0x79,0xbd,0xb5,0x5b,0xc0,0x3f,0x6b,0xcf,0x51,0x40,0x5e,0x16,0x90,0x3e,0xc0,0x30,0xe2,0xbf,0x5c,0xf9,0x92,0xbf,0x8f,0xd2,0x89,0x40,0xb1,0xae,0x77,0x40,0xa,0x3d,0x94,0x3f,0xfe,0xf0,0xce,0xbb,0x6a,0x93,0x3d,0x40,0x80,0x47,0x38,0x40,0xe6,0xbe,0x24,0x3f,0xf5,0x38,0x7d,0xbe,0xe0,0xff,0x58,0x40,0x25,0x81,0x3b,0x40,0x22,0xe6,0x77,0xc0,0xb0,0x43,0x90,0x40,0xde,0xcf,0x20,0x40,0x32,0x96,0x90,0xbf,0x18,0xe1,0x2a,0xbc,0x71,0x13,0x1d,0x40,0xbc,0xe,0x47,0x40,0xe4,0xfb,0x92,0x40,0x1,0xff,0x96,0x3f,0x62,0x5a,0xad,0x3f,0x1,0x2b,0x4f,0x40,0x71,0x56,0xb1,0xbf,0x71,0xf4,0x88,0x40,0x3d,0xcf,0xc5,0xbd,0x0,0x0,0x0,0x0,0x5c,0x7,0x63,0xc0,0xaa,0x17,0x9b,0x3f,0x83,0x42,0x2c,0x40,0x97,0x80,0xa2,0x3e,0xb2,0x48,0x6b,0x40,0xfb,0x9e,0xd,0x3e,0x76,0x30,0x77,0x40,0xf4,0xee,0xf1,0x3f,0xce,0xff,0xff,0xff,0x4,0x0,0x0,0x0,0x24,0x0,0x0,0x0,0x16,0x8e,0x9d,0x40,0x6d,0xbb,0xe5,0xbf,0x11,0x2d,0xa5,0xbe,0xf3,0xdc,0xf,0xc0,0xcb,0xa8,0xa6,0x3f,0x79,0x1,0x29,0xc0,0x4,0xde,0x2d,0xc0,0x68,0x7c,0xf2,0x3e,0x2e,0x60,0x55,0xbf,0x0,0x0,0x6,0x0,0x8,0x0,0x4,0x0,0x6,0x0,0x0,0x0,0x4,0x0,0x0,0x0,0x4,0x0,0x0,0x0,0x95,0xe3,0x5,0xbf,0xf0,0xf8,0xff,0xff,0xf4,0xf8,0xff,0xff,0xf,0x0,0x0,0x0,0x4d,0x4c,0x49,0x52,0x20,0x43,0x6f,0x6e,0x76,0x65,0x72,0x74,0x65,0x64,0x2e,0x0,0x1,0x0,0x0,0x0,0x14,0x0,0x0,0x0,0x0,0x0,0xe,0x0,0x18,0x0,0x14,0x0,0x10,0x0,0xc,0x0,0x8,0x0,0x4,0x0,0xe,0x0,0x0,0x0,0x14,0x0,0x0,0x0,0x1c,0x0,0x0,0x0,0x90,0x1,0x0,0x0,0x94,0x1,0x0,0x0,0x98,0x1,0x0,0x0,0x4,0x0,0x0,0x0,0x6d,0x61,0x69,0x6e,0x0,0x0,0x0,0x0,0x5,0x0,0x0,0x0,0x28,0x1,0x0,0x0,0xc4,0x0,0x0,0x0,0x8c,0x0,0x0,0x0,0x3c,0x0,0x0,0x0,0x4,0x0,0x0,0x0,0x5a,0xff,0xff,0xff,0x14,0x0,0x0,0x0,0x0,0x0,0x0,0x8,0x10,0x0,0x0,0x0,0x14,0x0,0x0,0x0,0x3,0x0,0x0,0x0,0x78,0xf9,0xff,0xff,0x1,0x0,0x0,0x0,0xc,0x0,0x0,0x0,0x3,0x0,0x0,0x0,0xb,0x0,0x0,0x0,0x7,0x0,0x0,0x0,0x4,0x0,0x0,0x0,0x8e,0xff,0xff,0xff,0x1c,0x0,0x0,0x0,0x0,0x0,0x0,0x8,0x1c,0x0,0x0,0x0,0x20,0x0,0x0,0x0,0x3,0x0,0x0,0x0,0x0,0x0,0x6,0x0,0x8,0x0,0x7,0x0,0x6,0x0,0x0,0x0,0x0,0x0,0x0,0x1,0x1,0x0,0x0,0x0,0xb,0x0,0x0,0x0,0x3,0x0,0x0,0x0,0xa,0x0,0x0,0x0,0x6,0x0,0x0,0x0,0x3,0x0,0x0,0x0,0x0,0x0,0xa,0x0,0x10,0x0,0xc,0x0,0x8,0x0,0x4,0x0,0xa,0x0,0x0,0x0,0xc,0x0,0x0,0x0,0x10,0x0,0x0,0x0,0x2,0x0,0x0,0x0,0x1,0x0,0x0,0x0,0xa,0x0,0x0,0x0,0x2,0x0,0x0,0x0,0x9,0x0,0x0,0x0,0x5,0x0,0x0,0x0,0x0,0x0,0xe,0x0,0x1a,0x0,0x14,0x0,0x10,0x0,0xc,0x0,0xb,0x0,0x4,0x0,0xe,0x0,0x0,0x0,0x24,0x0,0x0,0x0,0x0,0x0,0x0,0x5,0x34,0x0,0x0,0x0,0x38,0x0,0x0,0x0,0x1,0x0,0x0,0x0,0x0,0x0,0xe,0x0,0x18,0x0,0x17,0x0,0x10,0x0,0xc,0x0,0x8,0x0,0x4,0x0,0xe,0x0,0x0,0x0,0x2,0x0,0x0,0x0,0x2,0x0,0x0,0x0,0x2,0x0,0x0,0x0,0x2,0x0,0x0,0x0,0x0,0x0,0x0,0x1,0x1,0x0,0x0,0x0,0x9,0x0,0x0,0x0,0x1,0x0,0x0,0x0,0x8,0x0,0x0,0x0,0x0,0x0,0xe,0x0,0x14,0x0,0x0,0x0,0x10,0x0,0xc,0x0,0xb,0x0,0x4,0x0,0xe,0x0,0x0,0x0,0x1c,0x0,0x0,0x0,0x0,0x0,0x0,0x1,0x28,0x0,0x0,0x0,0x2c,0x0,0x0,0x0,0xc,0x0,0x14,0x0,0x13,0x0,0xc,0x0,0x8,0x0,0x7,0x0,0xc,0x0,0x0,0x0,0x0,0x0,0x0,0x1,0x1,0x0,0x0,0x0,0x1,0x0,0x0,0x0,0x0,0x0,0x0,0x1,0x1,0x0,0x0,0x0,0x8,0x0,0x0,0x0,0x3,0x0,0x0,0x0,0x0,0x0,0x0,0x0,0x2,0x0,0x0,0x0,0x1,0x0,0x0,0x0,0x1,0x0,0x0,0x0,0xc,0x0,0x0,0x0,0x1,0x0,0x0,0x0,0x0,0x0,0x0,0x0,0xd,0x0,0x0,0x0,0xfc,0x4,0x0,0x0,0x8c,0x4,0x0,0x0,0x20,0x4,0x0,0x0,0xcc,0x3,0x0,0x0,0x74,0x3,0x0,0x0,0x28,0x3,0x0,0x0,0xc8,0x2,0x0,0x0,0x7c,0x2,0x0,0x0,0xb8,0x1,0x0,0x0,0x44,0x1,0x0,0x0,0xe8,0x0,0x0,0x0,0x60,0x0,0x0,0x0,0x4,0x0,0x0,0x0,0x4e,0xfb,0xff,0xff,0x0,0x0,0x0,0x1,0x14,0x0,0x0,0x0,0x1c,0x0,0x0,0x0,0x1c,0x0,0x0,0x0,0xd,0x0,0x0,0x0,0x34,0x0,0x0,0x0,0x2,0x0,0x0,0x0,0xff,0xff,0xff,0xff,0x2,0x0,0x0,0x0,0x30,0xfb,0xff,0xff,0x19,0x0,0x0,0x0,0x53,0x74,0x61,0x74,0x65,0x66,0x75,0x6c,0x50,0x61,0x72,0x74,0x69,0x74,0x69,0x6f,0x6e,0x65,0x64,0x43,0x61,0x6c,0x6c,0x3a,0x30,0x0,0x0,0x0,0x2,0x0,0x0,0x0,0x1,0x0,0x0,0x0,0x2,0x0,0x0,0x0,0xa6,0xfb,0xff,0xff,0x0,0x0,0x0,0x1,0x14,0x0,0x0,0x0,0x1c,0x0,0x0,0x0,0x1c,0x0,0x0,0x0,0xc,0x0,0x0,0x0,0x60,0x0,0x0,0x0,0x2,0x0,0x0,0x0,0xff,0xff,0xff,0xff,0x41,0x0,0x0,0x0,0x88,0xfb,0xff,0xff,0x46,0x0,0x0,0x0,0x73,0x65,0x71,0x75,0x65,0x6e,0x74,0x69,0x61,0x6c,0x2f,0x64,0x65,0x6e,0x73,0x65,0x2f,0x4d,0x61,0x74,0x4d,0x75,0x6c,0x3b,0x73,0x65,0x71,0x75,0x65,0x6e,0x74,0x69,0x61,0x6c,0x2f,0x64,0x65,0x6e,0x73,0x65,0x2f,0x52,0x65,0x6c,0x75,0x3b,0x73,0x65,0x71,0x75,0x65,0x6e,0x74,0x69,0x61,0x6c,0x2f,0x64,0x65,0x6e,0x73,0x65,0x2f,0x42,0x69,0x61,0x73,0x41,0x64,0x64,0x0,0x0,0x2,0x0,0x0,0x0,0x1,0x0,0x0,0x0,0x41,0x0,0x0,0x0,0x2a,0xfc,0xff,0xff,0x0,0x0,0x0,0x1,0x14,0x0,0x0,0x0,0x1c,0x0,0x0,0x0,0x1c,0x0,0x0,0x0,0xb,0x0,0x0,0x0,0x34,0x0,0x0,0x0,0x2,0x0,0x0,0x0,0xff,0xff,0xff,0xff,0xf,0x0,0x0,0x0,0xc,0xfc,0xff,0xff,0x1a,0x0,0x0,0x0,0x73,0x65,0x71,0x75,0x65,0x6e,0x74,0x69,0x61,0x6c,0x2f,0x66,0x6c,0x61,0x74,0x74,0x65,0x6e,0x2f,0x52,0x65,0x73,0x68,0x61,0x70,0x65,0x0,0x0,0x2,0x0,0x0,0x0,0x1,0x0,0x0,0x0,0xf,0x0,0x0,0x0,0x82,0xfc,0xff,0xff,0x0,0x0,0x0,0x1,0x14,0x0,0x0,0x0,0x24,0x0,0x0,0x0,0x24,0x0,0x0,0x0,0xa,0x0,0x0,0x0,0x44,0x0,0x0,0x0,0x4,0x0,0x0,0x0,0xff,0xff,0xff,0xff,0x3,0x0,0x0,0x0,0x5,0x0,0x0,0x0,0x1,0x0,0x0,0x0,0x6c,0xfc,0xff,0xff,0x20,0x0,0x0,0x0,0x73,0x65,0x71,0x75,0x65,0x6e,0x74,0x69,0x61,0x6c,0x2f,0x6d,0x61,0x78,0x5f,0x70,0x6f,0x6f,0x6c,0x69,0x6e,0x67,0x32,0x64,0x2f,0x4d,0x61,0x78,0x50,0x6f,0x6f,0x6c,0x0,0x0,0x0,0x0,0x4,0x0,0x0,0x0,0x1,0x0,0x0,0x0,0x3,0x0,0x0,0x0,0x5,0x0,0x0,0x0,0x1,0x0,0x0,0x0,0xf2,0xfc,0xff,0xff,0x0,0x0,0x0,0x1,0x14,0x0,0x0,0x0,0x24,0x0,0x0,0x0,0x24,0x0,0x0,0x0,0x9,0x0,0x0,0x0,0x94,0x0,0x0,0x0,0x4,0x0,0x0,0x0,0xff,0xff,0xff,0xff,0x7,0x0,0x0,0x0,0xa,0x0,0x0,0x0,0x1,0x0,0x0,0x0,0xdc,0xfc,0xff,0xff,0x72,0x0,0x0,0x0,0x73,0x65,0x71,0x75,0x65,0x6e,0x74,0x69,0x61,0x6c,0x2f,0x63,0x6f,0x6e,0x76,0x32,0x64,0x2f,0x52,0x65,0x6c,0x75,0x3b,0x73,0x65,0x71,0x75,0x65,0x6e,0x74,0x69,0x61,0x6c,0x2f,0x63,0x6f,0x6e,0x76,0x32,0x64,0x2f,0x42,0x69,0x61,0x73,0x41,0x64,0x64,0x3b,0x73,0x65,0x71,0x75,0x65,0x6e,0x74,0x69,0x61,0x6c,0x2f,0x63,0x6f,0x6e,0x76,0x32,0x64,0x2f,0x43,0x6f,0x6e,0x76,0x32,0x44,0x3b,0x73,0x65,0x71,0x75,0x65,0x6e,0x74,0x69,0x61,0x6c,0x2f,0x63,0x6f,0x6e,0x76,0x32,0x64,0x2f,0x42,0x69,0x61,0x73,0x41,0x64,0x64,0x2f,0x52,0x65,0x61,0x64,0x56,0x61,0x72,0x69,0x61,0x62,0x6c,0x65,0x4f,0x70,0x0,0x0,0x4,0x0,0x0,0x0,0x1,0x0,0x0,0x0,0x7,0x0,0x0,0x0,0xa,0x0,0x0,0x0,0x1,0x0,0x0,0x0,0x1e,0xfe,0xff,0xff,0x0,0x0,0x0,0x1,0x10,0x0,0x0,0x0,0x10,0x0,0x0,0x0,0x8,0x0,0x0,0x0,0x28,0x0,0x0,0x0,0x84,0xfd,0xff,0xff,0x19,0x0,0x0,0x0,0x73,0x65,0x71,0x75,0x65,0x6e,0x74,0x69,0x61,0x6c,0x2f,0x64,0x65,0x6e,0x73,0x65,0x5f,0x31,0x2f,0x4d,0x61,0x74,0x4d,0x75,0x6c,0x0,0x0,0x0,0x2,0x0,0x0,0x0,0x2,0x0,0x0,0x0,0x41,0x0,0x0,0x0,0x66,0xfe,0xff,0xff,0x0,0x0,0x0,0x1,0x10,0x0,0x0,0x0,0x10,0x0,0x0,0x0,0x7,0x0,0x0,0x0,0x24,0x0,0x0,0x0,0xcc,0xfd,0xff,0xff,0x17,0x0,0x0,0x0,0x73,0x65,0x71,0x75,0x65,0x6e,0x74,0x69,0x61,0x6c,0x2f,0x64,0x65,0x6e,0x73,0x65,0x2f,0x4d,0x61,0x74,0x4d,0x75,0x6c,0x0,0x2,0x0,0x0,0x0,0x41,0x0,0x0,0x0,0xf,0x0,0x0,0x0,0x0,0x0,0x16,0x0,0x1c,0x0,0x18,0x0,0x17,0x0,0x10,0x0,0xc,0x0,0x8,0x0,0x0,0x0,0x0,0x0,0x0,0x0,0x7,0x0,0x16,0x0,0x0,0x0,0x0,0x0,0x0,0x1,0x14,0x0,0x0,0x0,0x14,0x0,0x0,0x0,0x6,0x0,0x0,0x0,0x0,0x0,0x0,0x2,0x28,0x0,0x0,0x0,0x2c,0xfe,0xff,0xff,0x18,0x0,0x0,0x0,0x73,0x65,0x71,0x75,0x65,0x6e,0x74,0x69,0x61,0x6c,0x2f,0x66,0x6c,0x61,0x74,0x74,0x65,0x6e,0x2f,0x43,0x6f,0x6e,0x73,0x74,0x0,0x0,0x0,0x0,0x1,0x0,0x0,0x0,0x2,0x0,0x0,0x0,0xa,0xff,0xff,0xff,0x0,0x0,0x0,0x1,0x10,0x0,0x0,0x0,0x10,0x0,0x0,0x0,0x5,0x0,0x0,0x0,0x38,0x0,0x0,0x0,0x70,0xfe,0xff,0xff,0x29,0x0,0x0,0x0,0x73,0x65,0x71,0x75,0x65,0x6e,0x74,0x69,0x61,0x6c,0x2f,0x64,0x65,0x6e,0x73,0x65,0x5f,0x31,0x2f,0x42,0x69,0x61,0x73,0x41,0x64,0x64,0x2f,0x52,0x65,0x61,0x64,0x56,0x61,0x72,0x69,0x61,0x62,0x6c,0x65,0x4f,0x70,0x0,0x0,0x0,0x1,0x0,0x0,0x0,0x2,0x0,0x0,0x0,0x5e,0xff,0xff,0xff,0x0,0x0,0x0,0x1,0x10,0x0,0x0,0x0,0x10,0x0,0x0,0x0,0x4,0x0,0x0,0x0,0x34,0x0,0x0,0x0,0xc4,0xfe,0xff,0xff,0x27,0x0,0x0,0x0,0x73,0x65,0x71,0x75,0x65,0x6e,0x74,0x69,0x61,0x6c,0x2f,0x64,0x65,0x6e,0x73,0x65,0x2f,0x42,0x69,0x61,0x73,0x41,0x64,0x64,0x2f,0x52,0x65,0x61,0x64,0x56,0x61,0x72,0x69,0x61,0x62,0x6c,0x65,0x4f,0x70,0x0,0x1,0x0,0x0,0x0,0x41,0x0,0x0,0x0,0xae,0xff,0xff,0xff,0x0,0x0,0x0,0x1,0x10,0x0,0x0,0x0,0x10,0x0,0x0,0x0,0x3,0x0,0x0,0x0,0x28,0x0,0x0,0x0,0x14,0xff,0xff,0xff,0x18,0x0,0x0,0x0,0x73,0x65,0x71,0x75,0x65,0x6e,0x74,0x69,0x61,0x6c,0x2f,0x63,0x6f,0x6e,0x76,0x32,0x64,0x2f,0x43,0x6f,0x6e,0x76,0x32,0x44,0x0,0x0,0x0,0x0,0x4,0x0,0x0,0x0,0x1,0x0,0x0,0x0,0x3,0x0,0x0,0x0,0x3,0x0,0x0,0x0,0x1,0x0,0x0,0x0,0x0,0x0,0x16,0x0,0x18,0x0,0x14,0x0,0x0,0x0,0x10,0x0,0xc,0x0,0x8,0x0,0x0,0x0,0x0,0x0,0x0,0x0,0x7,0x0,0x16,0x0,0x0,0x0,0x0,0x0,0x0,0x1,0x10,0x0,0x0,0x0,0x10,0x0,0x0,0x0,0x2,0x0,0x0,0x0,0x38,0x0,0x0,0x0,0x7c,0xff,0xff,0xff,0x28,0x0,0x0,0x0,0x73,0x65,0x71,0x75,0x65,0x6e,0x74,0x69,0x61,0x6c,0x2f,0x63,0x6f,0x6e,0x76,0x32,0x64,0x2f,0x42,0x69,0x61,0x73,0x41,0x64,0x64,0x2f,0x52,0x65,0x61,0x64,0x56,0x61,0x72,0x69,0x61,0x62,0x6c,0x65,0x4f,0x70,0x0,0x0,0x0,0x0,0x1,0x0,0x0,0x0,0x1,0x0,0x0,0x0,0x0,0x0,0x16,0x0,0x1c,0x0,0x18,0x0,0x0,0x0,0x14,0x0,0x10,0x0,0xc,0x0,0x0,0x0,0x0,0x0,0x8,0x0,0x7,0x0,0x16,0x0,0x0,0x0,0x0,0x0,0x0,0x1,0x14,0x0,0x0,0x0,0x28,0x0,0x0,0x0,0x28,0x0,0x0,0x0,0x1,0x0,0x0,0x0,0x44,0x0,0x0,0x0,0x4,0x0,0x0,0x0,0xff,0xff,0xff,0xff,0x9,0x0,0x0,0x0,0xc,0x0,0x0,0x0,0x1,0x0,0x0,0x0,0x4,0x0,0x4,0x0,0x4,0x0,0x0,0x0,0x1e,0x0,0x0,0x0,0x73,0x65,0x72,0x76,0x69,0x6e,0x67,0x5f,0x64,0x65,0x66,0x61,0x75,0x6c,0x74,0x5f,0x63,0x6f,0x6e,0x76,0x32,0x64,0x5f,0x69,0x6e,0x70,0x75,0x74,0x3a,0x30,0x0,0x0,0x4,0x0,0x0,0x0,0x1,0x0,0x0,0x0,0x9,0x0,0x0,0x0,0xc,0x0,0x0,0x0,0x1,0x0,0x0,0x0,0x4,0x0,0x0,0x0,0x40,0x0,0x0,0x0,0x24,0x0,0x0,0x0,0x14,0x0,0x0,0x0,0x4,0x0,0x0,0x0,0xdc,0xff,0xff,0xff,0x9,0x0,0x0,0x0,0x0,0x0,0x0,0x9,0xe8,0xff,0xff,0xff,0x16,0x0,0x0,0x0,0x0,0x0,0x0,0x16,0xf4,0xff,0xff,0xff,0x11,0x0,0x0,0x0,0x0,0x0,0x0,0x11,0xc,0x0,0xc,0x0,0xb,0x0,0x0,0x0,0x0,0x0,0x4,0x0,0xc,0x0,0x0,0x0,0x3,0x0,0x0,0x0,0x0,0x0,0x0,0x3};
