#include <cstdint>

#include "/home/emil/Desktop/shared_ubuntu/new/tflite-micro/tensorflow/lite/micro/examples/meta/models/meta_int8_model_data.h"

alignas(16) const unsigned char g_meta_int8_model_data[] = {0x20,0x0,0x0,0x0,0x54,0x46,0x4c,0x33,0x0,0x0,0x0,0x0,0x14,0x0,0x20,0x0,0x1c,0x0,0x18,0x0,0x14,0x0,0x10,0x0,0xc,0x0,0x0,0x0,0x8,0x0,0x4,0x0,0x14,0x0,0x0,0x0,0x1c,0x0,0x0,0x0,0x90,0x0,0x0,0x0,0xe8,0x0,0x0,0x0,0xa8,0x7,0x0,0x0,0xb8,0x7,0x0,0x0,0xbc,0x13,0x0,0x0,0x3,0x0,0x0,0x0,0x1,0x0,0x0,0x0,0x4,0x0,0x0,0x0,0x6a,0xf7,0xff,0xff,0xc,0x0,0x0,0x0,0x1c,0x0,0x0,0x0,0x40,0x0,0x0,0x0,0xf,0x0,0x0,0x0,0x73,0x65,0x72,0x76,0x69,0x6e,0x67,0x5f,0x64,0x65,0x66,0x61,0x75,0x6c,0x74,0x0,0x1,0x0,0x0,0x0,0x4,0x0,0x0,0x0,0x8c,0xff,0xff,0xff,0xe,0x0,0x0,0x0,0x4,0x0,0x0,0x0,0xd,0x0,0x0,0x0,0x71,0x75,0x61,0x6e,0x74,0x5f,0x64,0x65,0x6e,0x73,0x65,0x5f,0x31,0x0,0x0,0x0,0x1,0x0,0x0,0x0,0x4,0x0,0x0,0x0,0xe6,0xf8,0xff,0xff,0x4,0x0,0x0,0x0,0xc,0x0,0x0,0x0,0x63,0x6f,0x6e,0x76,0x32,0x64,0x5f,0x69,0x6e,0x70,0x75,0x74,0x0,0x0,0x0,0x0,0x2,0x0,0x0,0x0,0x34,0x0,0x0,0x0,0x4,0x0,0x0,0x0,0xdc,0xff,0xff,0xff,0x11,0x0,0x0,0x0,0x4,0x0,0x0,0x0,0x13,0x0,0x0,0x0,0x43,0x4f,0x4e,0x56,0x45,0x52,0x53,0x49,0x4f,0x4e,0x5f,0x4d,0x45,0x54,0x41,0x44,0x41,0x54,0x41,0x0,0x8,0x0,0xc,0x0,0x8,0x0,0x4,0x0,0x8,0x0,0x0,0x0,0x10,0x0,0x0,0x0,0x4,0x0,0x0,0x0,0x13,0x0,0x0,0x0,0x6d,0x69,0x6e,0x5f,0x72,0x75,0x6e,0x74,0x69,0x6d,0x65,0x5f,0x76,0x65,0x72,0x73,0x69,0x6f,0x6e,0x0,0x12,0x0,0x0,0x0,0xbc,0x6,0x0,0x0,0xb4,0x6,0x0,0x0,0x9c,0x6,0x0,0x0,0x80,0x6,0x0,0x0,0x6c,0x5,0x0,0x0,0x54,0x5,0x0,0x0,0x4c,0x5,0x0,0x0,0x30,0x5,0x0,0x0,0x28,0x5,0x0,0x0,0x20,0x5,0x0,0x0,0x18,0x5,0x0,0x0,0x38,0x1,0x0,0x0,0x30,0x1,0x0,0x0,0x9c,0x0,0x0,0x0,0x94,0x0,0x0,0x0,0x8c,0x0,0x0,0x0,0x6c,0x0,0x0,0x0,0x4,0x0,0x0,0x0,0xaa,0xf9,0xff,0xff,0x4,0x0,0x0,0x0,0x58,0x0,0x0,0x0,0xc,0x0,0x0,0x0,0x8,0x0,0xe,0x0,0x8,0x0,0x4,0x0,0x8,0x0,0x0,0x0,0x10,0x0,0x0,0x0,0x28,0x0,0x0,0x0,0x0,0x0,0x6,0x0,0x8,0x0,0x4,0x0,0x6,0x0,0x0,0x0,0x4,0x0,0x0,0x0,0x1,0x0,0x0,0x0,0xd0,0x7,0x0,0x0,0x0,0x0,0xa,0x0,0x10,0x0,0xc,0x0,0x8,0x0,0x4,0x0,0xa,0x0,0x0,0x0,0x2,0x0,0x0,0x0,0x2,0x0,0x0,0x0,0x4,0x0,0x0,0x0,0x6,0x0,0x0,0x0,0x32,0x2e,0x31,0x32,0x2e,0x30,0x0,0x0,0xe,0xfa,0xff,0xff,0x4,0x0,0x0,0x0,0x10,0x0,0x0,0x0,0x31,0x2e,0x31,0x34,0x2e,0x30,0x0,0x0,0x0,0x0,0x0,0x0,0x0,0x0,0x0,0x0,0x2c,0xee,0xff,0xff,0x30,0xee,0xff,0xff,0x32,0xfa,0xff,0xff,0x4,0x0,0x0,0x0,0x82,0x0,0x0,0x0,0xd3,0xff,0x2,0xfe,0x0,0x1c,0xf1,0xd1,0xa,0x51,0xfe,0xff,0xf1,0x3,0x1a,0xfd,0xfe,0x23,0xae,0x2f,0x11,0x82,0xc1,0xf8,0x1e,0xf3,0x4,0x75,0xdc,0xf,0x4d,0xa,0x1b,0x53,0xe5,0x16,0x1e,0xff,0xef,0xed,0xc9,0xca,0xcd,0x28,0xe7,0x23,0x3c,0x21,0xf3,0x1a,0x16,0xfd,0xa,0xcb,0xf8,0xfd,0xd,0xf7,0xff,0x3,0x3,0x24,0x7a,0xe2,0xe5,0x2f,0x2,0xff,0x1,0x1,0xe3,0x11,0x2d,0x0,0xae,0xfe,0xff,0x11,0x5,0x19,0xfc,0xfc,0xdd,0x52,0xcf,0xef,0x7e,0x3d,0xb,0xe2,0x10,0xfc,0x84,0x25,0xf1,0xb4,0xff,0xe7,0xac,0x1c,0xea,0xe1,0x0,0x11,0x13,0x36,0x33,0x32,0xd9,0x1a,0x1c,0xcc,0xde,0x14,0xe5,0xed,0x3,0xc,0x33,0x6,0xfc,0xe,0x9,0xff,0x0,0xfc,0xda,0x81,0x1c,0x19,0x0,0x0,0xc4,0xee,0xff,0xff,0xc6,0xfa,0xff,0xff,0x4,0x0,0x0,0x0,0xcf,0x3,0x0,0x0,0x17,0x2b,0x6,0xe9,0x3,0xe8,0xfd,0xdd,0xc4,0xe8,0x2b,0x27,0x11,0x1,0x11,0x1,0xf8,0xfb,0xf9,0xf7,0x4,0xfd,0xfa,0xfc,0xf5,0x1,0xf9,0xfe,0xfb,0xf6,0xff,0xfe,0x0,0xf5,0xf9,0xf3,0x9,0xfe,0xfb,0xfa,0x2,0xfc,0xff,0xfc,0x0,0xfb,0xfd,0xfd,0xfd,0xff,0x0,0x5,0xfb,0xfb,0xf9,0xfa,0x0,0xfc,0x4,0xfb,0x1,0xfd,0x4,0xfa,0xfa,0xfc,0xfd,0x2,0x1,0x0,0xfa,0xf9,0xfe,0xfe,0xff,0x17,0x16,0x1,0xff,0xb,0xd0,0x0,0x1,0xec,0xfc,0xc3,0x5,0x8,0xf9,0x4,0x11,0x3,0x2,0x3,0x5,0xe1,0x4,0xff,0xff,0x3,0xee,0x3,0x0,0xfc,0x3,0xff,0xe5,0x0,0x5,0x0,0x2b,0xf5,0x1,0x10,0x2,0xb,0xec,0x3,0x2,0x2,0xf8,0x2,0xa,0x8,0x2,0xa,0x2,0x6,0xff,0x5,0xfd,0xf6,0x11,0xf7,0x6,0xf8,0xf,0x8,0x11,0x6,0x8b,0x2c,0x10,0x3,0xc,0xb7,0xfd,0xf9,0xf0,0xf5,0x5,0x6,0xfe,0xff,0xfd,0xff,0xfd,0xfe,0xff,0xfa,0xfd,0xfb,0xfa,0x1,0x1,0xf8,0x2,0x1,0xfc,0xfa,0x3,0xfd,0xfe,0xfe,0x3,0xfd,0x0,0x0,0x4,0xfb,0xe5,0xf6,0xfd,0xf0,0xf,0x39,0xa,0xf4,0x1,0xa,0xa,0x4,0xf1,0x9,0x1,0xf9,0xfa,0xfc,0x2,0xfb,0xfe,0x0,0x5,0x0,0xfe,0x0,0x2,0xfa,0xfe,0xf9,0x4,0x0,0x2,0x3,0x3,0x8,0xff,0x3,0x1,0x1,0x4,0x2,0x1,0x1,0xfb,0xfa,0xfd,0xf9,0x4,0x4,0xfc,0xfb,0xfe,0x0,0xfd,0xfa,0x0,0x4,0x5,0xfb,0xfd,0x4,0xfc,0x4,0xfc,0xfd,0x4,0xfc,0x1,0x0,0x1,0x0,0xf8,0xf9,0xfa,0x12,0xf,0xed,0xbf,0xff,0x4c,0xdf,0xb4,0xa1,0xd1,0x37,0x2a,0x5,0xfa,0x21,0xfc,0xf6,0x5,0xf1,0x1,0x43,0xee,0xef,0xee,0xf6,0x35,0x17,0xfd,0xa,0xf,0xf0,0xf8,0x0,0xfa,0x5,0xf1,0x6,0xe6,0x2,0xff,0x1,0xb,0x0,0x9,0x9,0x2,0xfa,0x3,0xfb,0xf8,0xe0,0x5,0x4,0xf0,0xb,0xff,0xc,0xf4,0xfc,0xfe,0xf5,0xc,0x4,0x15,0x5,0x81,0x32,0x18,0xf,0xf,0xa6,0xf0,0xfa,0xea,0xee,0xd4,0xc8,0xfd,0xf,0xf8,0x14,0xf4,0x25,0x36,0x1b,0xee,0xc2,0x5,0xfb,0xf4,0xe3,0xff,0xff,0xfe,0x2,0xf6,0xf6,0x8,0x5,0xfe,0xd8,0x2,0xfe,0xfe,0xff,0x15,0x8,0xef,0xfa,0xe6,0x30,0xe8,0xf6,0xfb,0xf3,0x6,0xe8,0xf7,0xf0,0xf0,0xb,0x25,0x3,0xf3,0x6,0xf5,0x4,0xe7,0xcc,0xed,0xd,0x28,0xff,0x3,0xd,0xff,0xfa,0xfc,0xfa,0x0,0x0,0xf9,0x2,0xff,0xfc,0x1,0xfb,0xfe,0xfb,0xfe,0x3,0xff,0xfe,0xfd,0xfd,0x11,0xf8,0xfb,0xfa,0xfc,0x7,0x9,0x3,0x4,0x5,0x3,0xe5,0x3,0x0,0xf7,0x1d,0xec,0xfa,0xfb,0x0,0xf6,0xe3,0x4,0xf3,0xf7,0xb,0xfa,0x11,0xf3,0xef,0x8e,0x1,0xd8,0xe5,0xef,0x7,0xa,0xec,0xf8,0xec,0xd9,0xcc,0xf9,0xb,0xf9,0x20,0xf4,0x1b,0x2a,0x17,0xfa,0xc9,0x0,0xf6,0xf5,0xfb,0x4,0xa,0x7,0x2,0x11,0xff,0x2,0x8,0x2,0xef,0xf7,0xa,0xfd,0xfe,0x4,0xdd,0x7,0xf3,0xf8,0x26,0xe2,0xec,0xe1,0xf7,0xfe,0xf0,0xc,0xf2,0x0,0x1e,0x46,0xff,0xe8,0x0,0xbc,0x4,0xda,0xb2,0xe3,0x28,0x2e,0x17,0xfe,0x4,0x0,0xfb,0xfc,0xf4,0xf7,0xe,0xfe,0xf7,0xf1,0xf0,0x4,0x7,0xfc,0xff,0xf7,0xff,0x14,0x2,0xa,0x4,0xb2,0xf,0xf3,0xf1,0xfe,0xef,0xff,0xe0,0xf3,0x5,0x4,0xfe,0xf7,0x3,0xf0,0xc8,0xfb,0xff,0xcf,0xfd,0xe,0xf4,0xf9,0xfe,0xff,0x5,0x0,0x0,0xfc,0xfc,0xfb,0x0,0x5,0xfb,0xfc,0x0,0xfe,0x5,0xfd,0xfb,0xe2,0xe5,0xfc,0x6,0xf1,0xd,0xf8,0x10,0x15,0xb,0xfe,0xdc,0xd,0x2,0xf8,0x6,0x14,0x4,0xf7,0x9,0xee,0x0,0xf8,0xda,0xf4,0x18,0x12,0x6,0x8,0xa,0x16,0x2a,0x2,0x8,0xfd,0x9d,0x3,0x4,0xf1,0x3,0xdf,0xf8,0x1,0xf2,0xf1,0x19,0xe,0xf1,0xfa,0xf1,0x39,0xe4,0xf1,0xfc,0xf3,0x24,0x1,0xf3,0xff,0xfc,0x13,0x2c,0x0,0xe8,0x1,0xf8,0xf8,0xdd,0xc9,0xeb,0x24,0x2c,0xf,0x5,0xe,0x3,0x1a,0x2,0xa,0xf1,0xab,0xfb,0xd,0x4,0x2,0xda,0xf0,0x3,0xf4,0xed,0xff,0xfe,0x3,0x0,0xff,0xcf,0x6,0xf9,0xf3,0xff,0xf3,0xfc,0xf0,0xf8,0xfc,0x3,0x3,0x0,0x6,0x0,0x6,0xfc,0xfe,0x5,0x1,0x9,0x7,0x0,0x2,0x6,0xfa,0xa,0x2,0xc,0x4,0xa4,0x20,0xf,0x11,0xf,0xc0,0xf5,0xfe,0xf0,0xf5,0xdd,0xef,0x2,0x9,0x0,0xd3,0x21,0x16,0x15,0x7,0xc2,0xee,0xfe,0x0,0xf1,0x5,0x4,0x3,0xfd,0x2,0xe6,0x3,0xf9,0xf9,0x1,0xf2,0x3,0xf8,0xfe,0xfe,0x0,0x11,0x12,0xfc,0xff,0xf6,0x4,0x2,0xf1,0xff,0xfd,0xed,0xf7,0xf6,0x1,0xfc,0x1,0xfc,0x2,0x1,0xd8,0xb,0xc,0x10,0x5,0xe0,0xed,0x3,0xf8,0xf7,0x7,0xfe,0x0,0xfa,0x4,0x4,0x4,0xff,0xf9,0x1,0xff,0xfd,0xfd,0xfd,0x2,0xfb,0xfa,0xf9,0xf4,0xff,0xfa,0xff,0xfa,0xf5,0xf9,0xfe,0xfd,0xfa,0xff,0xfb,0xf5,0xf8,0xfa,0xf6,0xfe,0x7,0xf9,0xee,0xec,0xf9,0x1b,0x3,0x17,0xc,0x8,0x1,0x2,0x1,0x3,0x3,0x4,0x5,0xfa,0x0,0xf6,0x5,0xfe,0x0,0x1,0xf8,0x3,0x0,0xff,0x0,0x1,0x2,0xf7,0x0,0xfb,0xfb,0xf8,0xff,0xf9,0xfd,0x4,0xfa,0xf6,0xfa,0xf1,0xf5,0x0,0x0,0x0,0xf8,0xfa,0x1,0xf5,0xfb,0x3,0x2,0xc9,0xec,0x7,0x0,0xa,0xb,0x13,0xf8,0x5,0xfc,0x4,0x19,0x1,0xf5,0x13,0x3,0x1,0x1,0xfb,0xfc,0xf8,0xfa,0x4,0x3,0xff,0xfb,0xf8,0xf8,0x4,0xfd,0xfb,0x3,0xfd,0xfa,0xfb,0x1,0x0,0xfc,0xf8,0x4,0xfa,0xfc,0xff,0x1,0x1,0x12,0xb,0x8,0xa,0x3,0xf5,0x3,0x1,0xc,0xfd,0xd9,0x7,0x0,0x5,0x0,0xf3,0xf5,0xfb,0xf4,0x7,0x2a,0xf7,0xed,0xf4,0xf9,0x24,0x16,0xe2,0xa,0x2,0xfc,0xf1,0x1,0xf8,0xfe,0x4d,0xec,0xf3,0xfc,0xfa,0x31,0xa,0x1,0xe,0xc,0x7,0xfc,0x7,0xfa,0xfd,0x9,0xea,0x8,0xf8,0xf8,0x14,0x4,0xfa,0xf4,0x3,0xf6,0xfd,0xf2,0xfa,0x6,0x2b,0xc,0xde,0xe8,0xfa,0x12,0x16,0x0,0x7,0x3,0x0,0xa4,0xf2,0xff,0xff,0xa8,0xf2,0xff,0xff,0xac,0xf2,0xff,0xff,0xae,0xfe,0xff,0xff,0x4,0x0,0x0,0x0,0x9,0x0,0x0,0x0,0x7f,0xd0,0xf6,0xce,0x14,0xcc,0xb4,0x4,0xed,0x0,0x0,0x0,0xc8,0xf2,0xff,0xff,0xca,0xfe,0xff,0xff,0x4,0x0,0x0,0x0,0x8,0x0,0x0,0x0,0x95,0x4,0x0,0x0,0xcb,0xff,0xff,0xff,0xde,0xfe,0xff,0xff,0x4,0x0,0x0,0x0,0x4,0x1,0x0,0x0,0x22,0x5,0x0,0x0,0x1c,0xe,0x0,0x0,0xa8,0x2,0x0,0x0,0x0,0x0,0x0,0x0,0x93,0xff,0xff,0xff,0x12,0x4,0x0,0x0,0xb,0x6,0x0,0x0,0x57,0xe5,0xff,0xff,0x24,0x11,0x0,0x0,0x77,0x19,0x0,0x0,0xec,0xff,0xff,0xff,0x97,0xff,0xff,0xff,0xe4,0x5,0x0,0x0,0xe7,0xff,0xff,0xff,0xbe,0x2c,0x0,0x0,0xb6,0xff,0xff,0xff,0xae,0xff,0xff,0xff,0x6b,0xfc,0xff,0xff,0xea,0xe8,0xff,0xff,0xd2,0xf9,0xff,0xff,0x96,0x0,0x0,0x0,0x59,0x1c,0x0,0x0,0xe0,0xfb,0xff,0xff,0x63,0x0,0x0,0x0,0x2f,0x15,0x0,0x0,0xad,0x7,0x0,0x0,0x0,0x0,0x0,0x0,0x26,0xdc,0xff,0xff,0x8a,0x8,0x0,0x0,0x8e,0x1e,0x0,0x0,0xf6,0x22,0x0,0x0,0xce,0xe,0x0,0x0,0xb1,0x14,0x0,0x0,0x50,0xfa,0xff,0xff,0x50,0x16,0x0,0x0,0x59,0xd,0x0,0x0,0xaf,0x3,0x0,0x0,0x0,0x0,0x0,0x0,0xbe,0x0,0x0,0x0,0xbf,0x2,0x0,0x0,0xd5,0x3,0x0,0x0,0x42,0x2,0x0,0x0,0x15,0x4,0x0,0x0,0x9c,0xfe,0xff,0xff,0xb,0x12,0x0,0x0,0xf9,0x30,0x0,0x0,0x4d,0x1f,0x0,0x0,0xd2,0x9,0x0,0x0,0xcd,0x12,0x0,0x0,0xaf,0xfe,0xff,0xff,0x55,0x24,0x0,0x0,0xc9,0xff,0xff,0xff,0x16,0x27,0x0,0x0,0x7f,0xfb,0xff,0xff,0x91,0xff,0xff,0xff,0x8c,0xff,0xff,0xff,0xd4,0x24,0x0,0x0,0xc0,0xf8,0xff,0xff,0x92,0xff,0xff,0xff,0xc4,0xff,0xff,0xff,0x2d,0xfb,0xff,0xff,0x75,0xfd,0xff,0xff,0x62,0xe4,0xff,0xff,0xe1,0xfe,0xff,0xff,0x4c,0xfc,0xff,0xff,0xee,0xff,0xff,0xff,0x4,0x0,0x0,0x0,0x4,0x0,0x0,0x0,0x9a,0xfa,0xff,0xff,0x0,0x0,0x6,0x0,0x8,0x0,0x4,0x0,0x6,0x0,0x0,0x0,0x4,0x0,0x0,0x0,0x8,0x0,0x0,0x0,0xff,0xff,0xff,0xff,0xf,0x0,0x0,0x0,0x1c,0xf4,0xff,0xff,0x20,0xf4,0xff,0xff,0xf,0x0,0x0,0x0,0x4d,0x4c,0x49,0x52,0x20,0x43,0x6f,0x6e,0x76,0x65,0x72,0x74,0x65,0x64,0x2e,0x0,0x1,0x0,0x0,0x0,0x14,0x0,0x0,0x0,0x0,0x0,0xe,0x0,0x18,0x0,0x14,0x0,0x10,0x0,0xc,0x0,0x8,0x0,0x4,0x0,0xe,0x0,0x0,0x0,0x14,0x0,0x0,0x0,0x1c,0x0,0x0,0x0,0xd4,0x1,0x0,0x0,0xd8,0x1,0x0,0x0,0xdc,0x1,0x0,0x0,0x4,0x0,0x0,0x0,0x6d,0x61,0x69,0x6e,0x0,0x0,0x0,0x0,0x7,0x0,0x0,0x0,0x9c,0x1,0x0,0x0,0x3c,0x1,0x0,0x0,0xd8,0x0,0x0,0x0,0xb0,0x0,0x0,0x0,0x60,0x0,0x0,0x0,0x28,0x0,0x0,0x0,0x4,0x0,0x0,0x0,0x6a,0xff,0xff,0xff,0xc,0x0,0x0,0x0,0x10,0x0,0x0,0x0,0x5,0x0,0x0,0x0,0x1,0x0,0x0,0x0,0xe,0x0,0x0,0x0,0x1,0x0,0x0,0x0,0xd,0x0,0x0,0x0,0xa,0xff,0xff,0xff,0x14,0x0,0x0,0x0,0x0,0x0,0x0,0x8,0x10,0x0,0x0,0x0,0x14,0x0,0x0,0x0,0x4,0x0,0x0,0x0,0xcc,0xf4,0xff,0xff,0x1,0x0,0x0,0x0,0xd,0x0,0x0,0x0,0x3,0x0,0x0,0x0,0xb,0x0,0x0,0x0,0xc,0x0,0x0,0x0,0x4,0x0,0x0,0x0,0x3e,0xff,0xff,0xff,0x1c,0x0,0x0,0x0,0x0,0x0,0x0,0x8,0x1c,0x0,0x0,0x0,0x20,0x0,0x0,0x0,0x4,0x0,0x0,0x0,0x0,0x0,0x6,0x0,0x8,0x0,0x7,0x0,0x6,0x0,0x0,0x0,0x0,0x0,0x0,0x1,0x1,0x0,0x0,0x0,0xb,0x0,0x0,0x0,0x3,0x0,0x0,0x0,0x9,0x0,0x0,0x0,0xa,0x0,0x0,0x0,0x3,0x0,0x0,0x0,0x0,0x0,0xa,0x0,0x10,0x0,0xc,0x0,0x8,0x0,0x4,0x0,0xa,0x0,0x0,0x0,0xc,0x0,0x0,0x0,0x10,0x0,0x0,0x0,0x3,0x0,0x0,0x0,0x1,0x0,0x0,0x0,0x9,0x0,0x0,0x0,0x2,0x0,0x0,0x0,0x8,0x0,0x0,0x0,0x1,0x0,0x0,0x0,0xae,0xff,0xff,0xff,0x24,0x0,0x0,0x0,0x0,0x0,0x0,0x5,0x34,0x0,0x0,0x0,0x38,0x0,0x0,0x0,0x2,0x0,0x0,0x0,0x0,0x0,0xe,0x0,0x18,0x0,0x17,0x0,0x10,0x0,0xc,0x0,0x8,0x0,0x4,0x0,0xe,0x0,0x0,0x0,0x2,0x0,0x0,0x0,0x2,0x0,0x0,0x0,0x2,0x0,0x0,0x0,0x2,0x0,0x0,0x0,0x0,0x0,0x0,0x1,0x1,0x0,0x0,0x0,0x8,0x0,0x0,0x0,0x1,0x0,0x0,0x0,0x7,0x0,0x0,0x0,0x0,0x0,0xe,0x0,0x18,0x0,0x14,0x0,0x10,0x0,0xc,0x0,0xb,0x0,0x4,0x0,0xe,0x0,0x0,0x0,0x20,0x0,0x0,0x0,0x0,0x0,0x0,0x1,0x2c,0x0,0x0,0x0,0x30,0x0,0x0,0x0,0x1,0x0,0x0,0x0,0xc,0x0,0x14,0x0,0x13,0x0,0xc,0x0,0x8,0x0,0x7,0x0,0xc,0x0,0x0,0x0,0x0,0x0,0x0,0x1,0x1,0x0,0x0,0x0,0x1,0x0,0x0,0x0,0x0,0x0,0x0,0x1,0x1,0x0,0x0,0x0,0x7,0x0,0x0,0x0,0x3,0x0,0x0,0x0,0x5,0x0,0x0,0x0,0x6,0x0,0x0,0x0,0x2,0x0,0x0,0x0,0x0,0x0,0xa,0x0,0xc,0x0,0x0,0x0,0x8,0x0,0x4,0x0,0xa,0x0,0x0,0x0,0x8,0x0,0x0,0x0,0xc,0x0,0x0,0x0,0x1,0x0,0x0,0x0,0x5,0x0,0x0,0x0,0x1,0x0,0x0,0x0,0x0,0x0,0x0,0x0,0x1,0x0,0x0,0x0,0xe,0x0,0x0,0x0,0x1,0x0,0x0,0x0,0x0,0x0,0x0,0x0,0xf,0x0,0x0,0x0,0x8c,0x9,0x0,0x0,0x24,0x9,0x0,0x0,0x80,0x8,0x0,0x0,0x0,0x8,0x0,0x0,0x84,0x7,0x0,0x0,0x28,0x6,0x0,0x0,0x4c,0x5,0x0,0x0,0x50,0x4,0x0,0x0,0xb4,0x3,0x0,0x0,0x30,0x3,0x0,0x0,0x88,0x2,0x0,0x0,0xb8,0x1,0x0,0x0,0x8,0x1,0x0,0x0,0x60,0x0,0x0,0x0,0x4,0x0,0x0,0x0,0xc6,0xf6,0xff,0xff,0x0,0x0,0x0,0x1,0x14,0x0,0x0,0x0,0x1c,0x0,0x0,0x0,0x1c,0x0,0x0,0x0,0xf,0x0,0x0,0x0,0x34,0x0,0x0,0x0,0x2,0x0,0x0,0x0,0xff,0xff,0xff,0xff,0x2,0x0,0x0,0x0,0xa8,0xf6,0xff,0xff,0x19,0x0,0x0,0x0,0x53,0x74,0x61,0x74,0x65,0x66,0x75,0x6c,0x50,0x61,0x72,0x74,0x69,0x74,0x69,0x6f,0x6e,0x65,0x64,0x43,0x61,0x6c,0x6c,0x3a,0x30,0x0,0x0,0x0,0x2,0x0,0x0,0x0,0x1,0x0,0x0,0x0,0x2,0x0,0x0,0x0,0x6e,0xfa,0xff,0xff,0x0,0x0,0x0,0x1,0x18,0x0,0x0,0x0,0x20,0x0,0x0,0x0,0x40,0x0,0x0,0x0,0xe,0x0,0x0,0x0,0x0,0x0,0x0,0x9,0x7c,0x0,0x0,0x0,0x2,0x0,0x0,0x0,0xff,0xff,0xff,0xff,0x2,0x0,0x0,0x0,0x1c,0xf8,0xff,0xff,0x8,0x0,0x0,0x0,0x14,0x0,0x0,0x0,0x1,0x0,0x0,0x0,0x89,0xff,0xff,0xff,0xff,0xff,0xff,0xff,0x0,0x0,0x0,0x0,0x1,0x0,0x0,0x0,0xfe,0x6a,0xd8,0x3e,0x40,0x0,0x0,0x0,0x73,0x65,0x71,0x75,0x65,0x6e,0x74,0x69,0x61,0x6c,0x2f,0x71,0x75,0x61,0x6e,0x74,0x5f,0x64,0x65,0x6e,0x73,0x65,0x5f,0x31,0x2f,0x4d,0x61,0x74,0x4d,0x75,0x6c,0x3b,0x73,0x65,0x71,0x75,0x65,0x6e,0x74,0x69,0x61,0x6c,0x2f,0x71,0x75,0x61,0x6e,0x74,0x5f,0x64,0x65,0x6e,0x73,0x65,0x5f,0x31,0x2f,0x42,0x69,0x61,0x73,0x41,0x64,0x64,0x0,0x0,0x0,0x0,0x2,0x0,0x0,0x0,0x1,0x0,0x0,0x0,0x2,0x0,0x0,0x0,0x96,0xfe,0xff,0xff,0x14,0x0,0x0,0x0,0x34,0x0,0x0,0x0,0xd,0x0,0x0,0x0,0x0,0x0,0x0,0x9,0x8c,0x0,0x0,0x0,0xac,0xf8,0xff,0xff,0x8,0x0,0x0,0x0,0x14,0x0,0x0,0x0,0x1,0x0,0x0,0x0,0x0,0x0,0x0,0x0,0x0,0x0,0x0,0x0,0x0,0x0,0x0,0x0,0x1,0x0,0x0,0x0,0x7b,0x1,0x81,0x3d,0x5f,0x0,0x0,0x0,0x73,0x65,0x71,0x75,0x65,0x6e,0x74,0x69,0x61,0x6c,0x2f,0x71,0x75,0x61,0x6e,0x74,0x5f,0x64,0x65,0x6e,0x73,0x65,0x5f,0x31,0x2f,0x4d,0x61,0x74,0x4d,0x75,0x6c,0x3b,0x73,0x65,0x71,0x75,0x65,0x6e,0x74,0x69,0x61,0x6c,0x2f,0x71,0x75,0x61,0x6e,0x74,0x5f,0x64,0x65,0x6e,0x73,0x65,0x5f,0x31,0x2f,0x4c,0x61,0x73,0x74,0x56,0x61,0x6c,0x75,0x65,0x51,0x75,0x61,0x6e,0x74,0x2f,0x46,0x61,0x6b,0x65,0x51,0x75,0x61,0x6e,0x74,0x57,0x69,0x74,0x68,0x4d,0x69,0x6e,0x4d,0x61,0x78,0x56,0x61,0x72,0x73,0x0,0x2,0x0,0x0,0x0,0x2,0x0,0x0,0x0,0x41,0x0,0x0,0x0,0xbe,0xfb,0xff,0xff,0x0,0x0,0x0,0x1,0x18,0x0,0x0,0x0,0x20,0x0,0x0,0x0,0x40,0x0,0x0,0x0,0xc,0x0,0x0,0x0,0x0,0x0,0x0,0x9,0x94,0x0,0x0,0x0,0x2,0x0,0x0,0x0,0xff,0xff,0xff,0xff,0x41,0x0,0x0,0x0,0x6c,0xf9,0xff,0xff,0x8,0x0,0x0,0x0,0x14,0x0,0x0,0x0,0x1,0x0,0x0,0x0,0x80,0xff,0xff,0xff,0xff,0xff,0xff,0xff,0x0,0x0,0x0,0x0,0x1,0x0,0x0,0x0,0x2f,0x60,0x88,0x3d,0x58,0x0,0x0,0x0,0x73,0x65,0x71,0x75,0x65,0x6e,0x74,0x69,0x61,0x6c,0x2f,0x71,0x75,0x61,0x6e,0x74,0x5f,0x64,0x65,0x6e,0x73,0x65,0x2f,0x4d,0x61,0x74,0x4d,0x75,0x6c,0x3b,0x73,0x65,0x71,0x75,0x65,0x6e,0x74,0x69,0x61,0x6c,0x2f,0x71,0x75,0x61,0x6e,0x74,0x5f,0x64,0x65,0x6e,0x73,0x65,0x2f,0x52,0x65,0x6c,0x75,0x3b,0x73,0x65,0x71,0x75,0x65,0x6e,0x74,0x69,0x61,0x6c,0x2f,0x71,0x75,0x61,0x6e,0x74,0x5f,0x64,0x65,0x6e,0x73,0x65,0x2f,0x42,0x69,0x61,0x73,0x41,0x64,0x64,0x0,0x0,0x0,0x0,0x2,0x0,0x0,0x0,0x1,0x0,0x0,0x0,0x41,0x0,0x0,0x0,0x0,0x0,0xe,0x0,0x18,0x0,0x14,0x0,0x13,0x0,0xc,0x0,0x8,0x0,0x4,0x0,0xe,0x0,0x0,0x0,0x14,0x0,0x0,0x0,0x30,0x0,0x0,0x0,0xb,0x0,0x0,0x0,0x0,0x0,0x0,0x9,0x84,0x0,0x0,0x0,0x24,0xfa,0xff,0xff,0x8,0x0,0x0,0x0,0x10,0x0,0x0,0x0,0x1,0x0,0x0,0x0,0x0,0x0,0x0,0x0,0x0,0x0,0x0,0x0,0x1,0x0,0x0,0x0,0x1e,0xb6,0x27,0x3d,0x5b,0x0,0x0,0x0,0x73,0x65,0x71,0x75,0x65,0x6e,0x74,0x69,0x61,0x6c,0x2f,0x71,0x75,0x61,0x6e,0x74,0x5f,0x64,0x65,0x6e,0x73,0x65,0x2f,0x4d,0x61,0x74,0x4d,0x75,0x6c,0x3b,0x73,0x65,0x71,0x75,0x65,0x6e,0x74,0x69,0x61,0x6c,0x2f,0x71,0x75,0x61,0x6e,0x74,0x5f,0x64,0x65,0x6e,0x73,0x65,0x2f,0x4c,0x61,0x73,0x74,0x56,0x61,0x6c,0x75,0x65,0x51,0x75,0x61,0x6e,0x74,0x2f,0x46,0x61,0x6b,0x65,0x51,0x75,0x61,0x6e,0x74,0x57,0x69,0x74,0x68,0x4d,0x69,0x6e,0x4d,0x61,0x78,0x56,0x61,0x72,0x73,0x0,0x2,0x0,0x0,0x0,0x41,0x0,0x0,0x0,0xf,0x0,0x0,0x0,0x2e,0xfd,0xff,0xff,0x0,0x0,0x0,0x1,0x18,0x0,0x0,0x0,0x20,0x0,0x0,0x0,0x3c,0x0,0x0,0x0,0xa,0x0,0x0,0x0,0x0,0x0,0x0,0x9,0x58,0x0,0x0,0x0,0x2,0x0,0x0,0x0,0xff,0xff,0xff,0xff,0xf,0x0,0x0,0x0,0xdc,0xfa,0xff,0xff,0x8,0x0,0x0,0x0,0x10,0x0,0x0,0x0,0x1,0x0,0x0,0x0,0x80,0xff,0xff,0xff,0xff,0xff,0xff,0xff,0x1,0x0,0x0,0x0,0xb1,0xf8,0x92,0x3c,0x20,0x0,0x0,0x0,0x73,0x65,0x71,0x75,0x65,0x6e,0x74,0x69,0x61,0x6c,0x2f,0x71,0x75,0x61,0x6e,0x74,0x5f,0x66,0x6c,0x61,0x74,0x74,0x65,0x6e,0x2f,0x52,0x65,0x73,0x68,0x61,0x70,0x65,0x0,0x0,0x0,0x0,0x2,0x0,0x0,0x0,0x1,0x0,0x0,0x0,0xf,0x0,0x0,0x0,0xae,0xfd,0xff,0xff,0x0,0x0,0x0,0x1,0x18,0x0,0x0,0x0,0x28,0x0,0x0,0x0,0x48,0x0,0x0,0x0,0x9,0x0,0x0,0x0,0x0,0x0,0x0,0x9,0x68,0x0,0x0,0x0,0x4,0x0,0x0,0x0,0xff,0xff,0xff,0xff,0x3,0x0,0x0,0x0,0x5,0x0,0x0,0x0,0x1,0x0,0x0,0x0,0x64,0xfb,0xff,0xff,0x8,0x0,0x0,0x0,0x14,0x0,0x0,0x0,0x1,0x0,0x0,0x0,0x80,0xff,0xff,0xff,0xff,0xff,0xff,0xff,0x0,0x0,0x0,0x0,0x1,0x0,0x0,0x0,0xb1,0xf8,0x92,0x3c,0x26,0x0,0x0,0x0,0x73,0x65,0x71,0x75,0x65,0x6e,0x74,0x69,0x61,0x6c,0x2f,0x71,0x75,0x61,0x6e,0x74,0x5f,0x6d,0x61,0x78,0x5f,0x70,0x6f,0x6f,0x6c,0x69,0x6e,0x67,0x32,0x64,0x2f,0x4d,0x61,0x78,0x50,0x6f,0x6f,0x6c,0x0,0x0,0x4,0x0,0x0,0x0,0x1,0x0,0x0,0x0,0x3,0x0,0x0,0x0,0x5,0x0,0x0,0x0,0x1,0x0,0x0,0x0,0x46,0xfe,0xff,0xff,0x0,0x0,0x0,0x1,0x18,0x0,0x0,0x0,0x28,0x0,0x0,0x0,0x44,0x0,0x0,0x0,0x8,0x0,0x0,0x0,0x0,0x0,0x0,0x9,0xc8,0x0,0x0,0x0,0x4,0x0,0x0,0x0,0xff,0xff,0xff,0xff,0x7,0x0,0x0,0x0,0xa,0x0,0x0,0x0,0x1,0x0,0x0,0x0,0xfc,0xfb,0xff,0xff,0x8,0x0,0x0,0x0,0x10,0x0,0x0,0x0,0x1,0x0,0x0,0x0,0x80,0xff,0xff,0xff,0xff,0xff,0xff,0xff,0x1,0x0,0x0,0x0,0xb1,0xf8,0x92,0x3c,0x8a,0x0,0x0,0x0,0x73,0x65,0x71,0x75,0x65,0x6e,0x74,0x69,0x61,0x6c,0x2f,0x71,0x75,0x61,0x6e,0x74,0x5f,0x63,0x6f,0x6e,0x76,0x32,0x64,0x2f,0x52,0x65,0x6c,0x75,0x3b,0x73,0x65,0x71,0x75,0x65,0x6e,0x74,0x69,0x61,0x6c,0x2f,0x71,0x75,0x61,0x6e,0x74,0x5f,0x63,0x6f,0x6e,0x76,0x32,0x64,0x2f,0x42,0x69,0x61,0x73,0x41,0x64,0x64,0x3b,0x73,0x65,0x71,0x75,0x65,0x6e,0x74,0x69,0x61,0x6c,0x2f,0x71,0x75,0x61,0x6e,0x74,0x5f,0x63,0x6f,0x6e,0x76,0x32,0x64,0x2f,0x43,0x6f,0x6e,0x76,0x32,0x44,0x3b,0x73,0x65,0x71,0x75,0x65,0x6e,0x74,0x69,0x61,0x6c,0x2f,0x71,0x75,0x61,0x6e,0x74,0x5f,0x63,0x6f,0x6e,0x76,0x32,0x64,0x2f,0x42,0x69,0x61,0x73,0x41,0x64,0x64,0x2f,0x52,0x65,0x61,0x64,0x56,0x61,0x72,0x69,0x61,0x62,0x6c,0x65,0x4f,0x70,0x0,0x0,0x4,0x0,0x0,0x0,0x1,0x0,0x0,0x0,0x7,0x0,0x0,0x0,0xa,0x0,0x0,0x0,0x1,0x0,0x0,0x0,0x52,0xfc,0xff,0xff,0x0,0x0,0x0,0x1,0x14,0x0,0x0,0x0,0x34,0x0,0x0,0x0,0x7,0x0,0x0,0x0,0x0,0x0,0x0,0x9,0x94,0x0,0x0,0x0,0xdc,0xfc,0xff,0xff,0x8,0x0,0x0,0x0,0x14,0x0,0x0,0x0,0x1,0x0,0x0,0x0,0x0,0x0,0x0,0x0,0x0,0x0,0x0,0x0,0x0,0x0,0x0,0x0,0x1,0x0,0x0,0x0,0xdc,0x69,0x24,0x3d,0x67,0x0,0x0,0x0,0x73,0x65,0x71,0x75,0x65,0x6e,0x74,0x69,0x61,0x6c,0x2f,0x71,0x75,0x61,0x6e,0x74,0x5f,0x63,0x6f,0x6e,0x76,0x32,0x64,0x2f,0x43,0x6f,0x6e,0x76,0x32,0x44,0x3b,0x73,0x65,0x71,0x75,0x65,0x6e,0x74,0x69,0x61,0x6c,0x2f,0x71,0x75,0x61,0x6e,0x74,0x5f,0x63,0x6f,0x6e,0x76,0x32,0x64,0x2f,0x4c,0x61,0x73,0x74,0x56,0x61,0x6c,0x75,0x65,0x51,0x75,0x61,0x6e,0x74,0x2f,0x46,0x61,0x6b,0x65,0x51,0x75,0x61,0x6e,0x74,0x57,0x69,0x74,0x68,0x4d,0x69,0x6e,0x4d,0x61,0x78,0x56,0x61,0x72,0x73,0x50,0x65,0x72,0x43,0x68,0x61,0x6e,0x6e,0x65,0x6c,0x0,0x4,0x0,0x0,0x0,0x1,0x0,0x0,0x0,0x3,0x0,0x0,0x0,0x3,0x0,0x0,0x0,0x1,0x0,0x0,0x0,0x0,0x0,0x16,0x0,0x20,0x0,0x1c,0x0,0x1b,0x0,0x14,0x0,0x10,0x0,0xc,0x0,0x0,0x0,0x0,0x0,0x8,0x0,0x7,0x0,0x16,0x0,0x0,0x0,0x0,0x0,0x0,0x1,0x18,0x0,0x0,0x0,0x28,0x0,0x0,0x0,0x44,0x0,0x0,0x0,0x6,0x0,0x0,0x0,0x0,0x0,0x0,0x9,0x28,0x1,0x0,0x0,0x4,0x0,0x0,0x0,0xff,0xff,0xff,0xff,0x9,0x0,0x0,0x0,0xc,0x0,0x0,0x0,0x1,0x0,0x0,0x0,0xcc,0xfd,0xff,0xff,0x8,0x0,0x0,0x0,0x10,0x0,0x0,0x0,0x1,0x0,0x0,0x0,0xfc,0xff,0xff,0xff,0xff,0xff,0xff,0xff,0x1,0x0,0x0,0x0,0x14,0x3,0xf2,0x3b,0xeb,0x0,0x0,0x0,0x73,0x65,0x71,0x75,0x65,0x6e,0x74,0x69,0x61,0x6c,0x2f,0x71,0x75,0x61,0x6e,0x74,0x69,0x7a,0x65,0x5f,0x6c,0x61,0x79,0x65,0x72,0x2f,0x41,0x6c,0x6c,0x56,0x61,0x6c,0x75,0x65,0x73,0x51,0x75,0x61,0x6e,0x74,0x69,0x7a,0x65,0x2f,0x46,0x61,0x6b,0x65,0x51,0x75,0x61,0x6e,0x74,0x57,0x69,0x74,0x68,0x4d,0x69,0x6e,0x4d,0x61,0x78,0x56,0x61,0x72,0x73,0x3b,0x73,0x65,0x71,0x75,0x65,0x6e,0x74,0x69,0x61,0x6c,0x2f,0x71,0x75,0x61,0x6e,0x74,0x69,0x7a,0x65,0x5f,0x6c,0x61,0x79,0x65,0x72,0x2f,0x41,0x6c,0x6c,0x56,0x61,0x6c,0x75,0x65,0x73,0x51,0x75,0x61,0x6e,0x74,0x69,0x7a,0x65,0x2f,0x46,0x61,0x6b,0x65,0x51,0x75,0x61,0x6e,0x74,0x57,0x69,0x74,0x68,0x4d,0x69,0x6e,0x4d,0x61,0x78,0x56,0x61,0x72,0x73,0x2f,0x52,0x65,0x61,0x64,0x56,0x61,0x72,0x69,0x61,0x62,0x6c,0x65,0x4f,0x70,0x3b,0x73,0x65,0x71,0x75,0x65,0x6e,0x74,0x69,0x61,0x6c,0x2f,0x71,0x75,0x61,0x6e,0x74,0x69,0x7a,0x65,0x5f,0x6c,0x61,0x79,0x65,0x72,0x2f,0x41,0x6c,0x6c,0x56,0x61,0x6c,0x75,0x65,0x73,0x51,0x75,0x61,0x6e,0x74,0x69,0x7a,0x65,0x2f,0x46,0x61,0x6b,0x65,0x51,0x75,0x61,0x6e,0x74,0x57,0x69,0x74,0x68,0x4d,0x69,0x6e,0x4d,0x61,0x78,0x56,0x61,0x72,0x73,0x2f,0x52,0x65,0x61,0x64,0x56,0x61,0x72,0x69,0x61,0x62,0x6c,0x65,0x4f,0x70,0x5f,0x31,0x0,0x4,0x0,0x0,0x0,0x1,0x0,0x0,0x0,0x9,0x0,0x0,0x0,0xc,0x0,0x0,0x0,0x1,0x0,0x0,0x0,0x82,0xfe,0xff,0xff,0x0,0x0,0x0,0x1,0x14,0x0,0x0,0x0,0x30,0x0,0x0,0x0,0x5,0x0,0x0,0x0,0x0,0x0,0x0,0x2,0x58,0x0,0x0,0x0,0xc,0xff,0xff,0xff,0x8,0x0,0x0,0x0,0x10,0x0,0x0,0x0,0x1,0x0,0x0,0x0,0x0,0x0,0x0,0x0,0x0,0x0,0x0,0x0,0x1,0x0,0x0,0x0,0x84,0x72,0x89,0x3b,0x2f,0x0,0x0,0x0,0x73,0x65,0x71,0x75,0x65,0x6e,0x74,0x69,0x61,0x6c,0x2f,0x71,0x75,0x61,0x6e,0x74,0x5f,0x64,0x65,0x6e,0x73,0x65,0x5f,0x31,0x2f,0x42,0x69,0x61,0x73,0x41,0x64,0x64,0x2f,0x52,0x65,0x61,0x64,0x56,0x61,0x72,0x69,0x61,0x62,0x6c,0x65,0x4f,0x70,0x0,0x1,0x0,0x0,0x0,0x2,0x0,0x0,0x0,0xfa,0xfe,0xff,0xff,0x0,0x0,0x0,0x1,0x14,0x0,0x0,0x0,0x34,0x0,0x0,0x0,0x4,0x0,0x0,0x0,0x0,0x0,0x0,0x2,0x5c,0x0,0x0,0x0,0x84,0xff,0xff,0xff,0x8,0x0,0x0,0x0,0x14,0x0,0x0,0x0,0x1,0x0,0x0,0x0,0x0,0x0,0x0,0x0,0x0,0x0,0x0,0x0,0x0,0x0,0x0,0x0,0x1,0x0,0x0,0x0,0x93,0x91,0x40,0x3a,0x2d,0x0,0x0,0x0,0x73,0x65,0x71,0x75,0x65,0x6e,0x74,0x69,0x61,0x6c,0x2f,0x71,0x75,0x61,0x6e,0x74,0x5f,0x64,0x65,0x6e,0x73,0x65,0x2f,0x42,0x69,0x61,0x73,0x41,0x64,0x64,0x2f,0x52,0x65,0x61,0x64,0x56,0x61,0x72,0x69,0x61,0x62,0x6c,0x65,0x4f,0x70,0x0,0x0,0x0,0x1,0x0,0x0,0x0,0x41,0x0,0x0,0x0,0x76,0xff,0xff,0xff,0x0,0x0,0x0,0x1,0x20,0x0,0x0,0x0,0x40,0x0,0x0,0x0,0x3,0x0,0x0,0x0,0x0,0x0,0x0,0x2,0x68,0x0,0x0,0x0,0xc,0x0,0xc,0x0,0x0,0x0,0x0,0x0,0x8,0x0,0x4,0x0,0xc,0x0,0x0,0x0,0x8,0x0,0x0,0x0,0x14,0x0,0x0,0x0,0x1,0x0,0x0,0x0,0x0,0x0,0x0,0x0,0x0,0x0,0x0,0x0,0x0,0x0,0x0,0x0,0x1,0x0,0x0,0x0,0xc,0x6e,0x9b,0x39,0x2e,0x0,0x0,0x0,0x73,0x65,0x71,0x75,0x65,0x6e,0x74,0x69,0x61,0x6c,0x2f,0x71,0x75,0x61,0x6e,0x74,0x5f,0x63,0x6f,0x6e,0x76,0x32,0x64,0x2f,0x42,0x69,0x61,0x73,0x41,0x64,0x64,0x2f,0x52,0x65,0x61,0x64,0x56,0x61,0x72,0x69,0x61,0x62,0x6c,0x65,0x4f,0x70,0x0,0x0,0x1,0x0,0x0,0x0,0x1,0x0,0x0,0x0,0x0,0x0,0x16,0x0,0x1c,0x0,0x18,0x0,0x17,0x0,0x10,0x0,0xc,0x0,0x8,0x0,0x0,0x0,0x0,0x0,0x0,0x0,0x7,0x0,0x16,0x0,0x0,0x0,0x0,0x0,0x0,0x1,0x14,0x0,0x0,0x0,0x14,0x0,0x0,0x0,0x2,0x0,0x0,0x0,0x0,0x0,0x0,0x2,0x2c,0x0,0x0,0x0,0x88,0xff,0xff,0xff,0x1e,0x0,0x0,0x0,0x73,0x65,0x71,0x75,0x65,0x6e,0x74,0x69,0x61,0x6c,0x2f,0x71,0x75,0x61,0x6e,0x74,0x5f,0x66,0x6c,0x61,0x74,0x74,0x65,0x6e,0x2f,0x43,0x6f,0x6e,0x73,0x74,0x0,0x0,0x1,0x0,0x0,0x0,0x2,0x0,0x0,0x0,0x0,0x0,0x16,0x0,0x1c,0x0,0x18,0x0,0x0,0x0,0x14,0x0,0x10,0x0,0xc,0x0,0x0,0x0,0x0,0x0,0x8,0x0,0x7,0x0,0x16,0x0,0x0,0x0,0x0,0x0,0x0,0x1,0x14,0x0,0x0,0x0,0x28,0x0,0x0,0x0,0x28,0x0,0x0,0x0,0x1,0x0,0x0,0x0,0x44,0x0,0x0,0x0,0x4,0x0,0x0,0x0,0xff,0xff,0xff,0xff,0x9,0x0,0x0,0x0,0xc,0x0,0x0,0x0,0x1,0x0,0x0,0x0,0x4,0x0,0x4,0x0,0x4,0x0,0x0,0x0,0x1e,0x0,0x0,0x0,0x73,0x65,0x72,0x76,0x69,0x6e,0x67,0x5f,0x64,0x65,0x66,0x61,0x75,0x6c,0x74,0x5f,0x63,0x6f,0x6e,0x76,0x32,0x64,0x5f,0x69,0x6e,0x70,0x75,0x74,0x3a,0x30,0x0,0x0,0x4,0x0,0x0,0x0,0x1,0x0,0x0,0x0,0x9,0x0,0x0,0x0,0xc,0x0,0x0,0x0,0x1,0x0,0x0,0x0,0x6,0x0,0x0,0x0,0x7c,0x0,0x0,0x0,0x5c,0x0,0x0,0x0,0x3c,0x0,0x0,0x0,0x2c,0x0,0x0,0x0,0x18,0x0,0x0,0x0,0x4,0x0,0x0,0x0,0xc4,0xff,0xff,0xff,0x6,0x0,0x0,0x0,0x2,0x0,0x0,0x0,0x0,0x0,0x0,0x6,0xd4,0xff,0xff,0xff,0x9,0x0,0x0,0x0,0x4,0x0,0x0,0x0,0x0,0x0,0x0,0x9,0xc8,0xff,0xff,0xff,0x16,0x0,0x0,0x0,0x0,0x0,0x0,0x16,0xf0,0xff,0xff,0xff,0x11,0x0,0x0,0x0,0x2,0x0,0x0,0x0,0x0,0x0,0x0,0x11,0xc,0x0,0x10,0x0,0xf,0x0,0x0,0x0,0x8,0x0,0x4,0x0,0xc,0x0,0x0,0x0,0x3,0x0,0x0,0x0,0x3,0x0,0x0,0x0,0x0,0x0,0x0,0x3,0xc,0x0,0xc,0x0,0xb,0x0,0x0,0x0,0x0,0x0,0x4,0x0,0xc,0x0,0x0,0x0,0x72,0x0,0x0,0x0,0x0,0x0,0x0,0x72};
